8
conv1.weight 288 3d800c85 bda00bed bd2457de 3dd511b0 3e0e43e4 be2c8651 be472fea 3ea59d15 be8febf1 be468b97 3ef67e84 3d550bd6 3ed0ea2a 3eefefc5 3f00ad7b 3eeb2627 be1e3e38 3d0543f8 be43d743 3e1ae7ff bd053911 bdc058b1 be62bf07 be0a7984 be22a3ae 3ea120f1 be3a000e 3ecb23f8 3e9c05d5 be85cb80 be4ce314 3e17f998 3e17f022 3df49fb3 3e58fc75 3e5c1d34 be7f93d4 3ebc1371 bdb562a2 3e5a05c5 3e746c42 3e65036a be538f2b 3ec2a879 3e9466d6 be23a048 3dc28e60 be0c4af0 3cd5ee96 be396376 be412a46 3df74646 be026e4e be93d208 be77eaa0 3e2fa671 3e06d681 be91b5cb 3e6514a8 bdee3400 3e734fe8 bc2cd011 bde8f0ad 3e1369ee bd234342 be63a11b be8196f2 be514d28 bdd73a26 bd836f62 be87148f be31524e be52df23 bd8664e6 3d758a3f be8af413 be421a0f bca9bc19 3ea9849c 3e44f7e5 3d9a26ca 3d8bde3e 3ea83faa bd1f0106 3e7c16d3 bda0723e 3e495f0f 3ed44ebc 3e454854 bdbc31e3 be2ed7d9 be591835 3e1b3321 be92a06e bd65c86d bea4d5a2 bd909fa1 3daefa7e 3e17e776 3e85b3f5 3edfa26c 3ef147f7 3c645a38 be1d5775 be06e21b bea3df32 3e541077 be5e0c5a 3e3add1a 3d535a56 bd8ea9b6 3ce9eaf7 3e712404 3cb915ac 3e0100e9 bdfea766 bdfd204f be4aae7d 3eaa3ce1 3ebf06c1 3eaf5a3e 3f1aa185 3f39f09a 3de3ea8a 3e6cfd44 3f19e8aa be0f5b98 bd1156a0 3d007c56 3bd8f200 bd49e400 be49f7be bde11f1b be7d847b be8f586c be762059 bea3cfbe 3e72fd6c 3e1848c1 be86242f 3e0e230c 3c405c52 be280e6f 3d4461bb 3ee5f66b 3dfdbd35 bde3bd19 3ebd3013 3f10ee91 3f138dce 3f2f60ad 3f34842b 3f3783b4 3b6db429 3da95b4f be7b8b65 be1716bf be417db9 3e82c5a3 3dbe4f7b 3e29a28e be68fea5 3e99b70e bde24a5e 3dc902ee 3e654bef 3e14c515 be705893 3dc5408c be8b6e59 3eb2bc4d 3e1504dc 3eb5f90c bcf5ef73 3f0ef8f2 3f1c0aac 3f092201 3ed19374 3f2f3e3c 3ec10fd3 bd5e6527 3e23e2f5 3ecc8a23 bde5d1b0 be9ae5c6 bdf4e540 be7ab54e bea93330 3e9a528f be852ff4 bee40a8d be89f263 be836f44 3ddca691 bdff0c00 3ee31f84 3ed5cf71 bd0da55d 3ece79f0 3ebf72e2 be9085c3 3e87fc3e be4fc024 3ebf0cbf 3d96d3cb 3e82a2d2 be8d2881 be9cc2e4 3e6cc547 be1e5e39 bdc846a6 be2869ed 3e5648c6 3d45be54 3c023548 3da60b73 3e8a6b5e be8d40e9 be630ab9 bdc42481 3e41beb6 be98023f 3e27141a be2e9881 beb3d0d9 3e1b57fb bdc300a0 3d94fe08 bdc4d2b2 be2d688c 3dfc51d5 3eec0d9c 3eec263a 3e075176 3dcbe0b0 be19e405 3e8bb9cd 3ebf9ca5 bcf31ea0 3e4a12db be8a1a51 be13f3fb be9ece63 3e09605a 3d822b25 3e95e797 bdae6ee8 3e206f41 be458ae4 bd08463d be9ff157 be50bf7a 3edb46c4 3f001dc6 3f214890 3ed7d175 3f1318e1 3f072669 be0ce95c 3e930697 3efb4976 3f0921b9 3eea688d 3e085730 3eedba2e bcfb2551 3ed865bd 3edc3207 3ec2825e 3e879cb6 3ed52c0d 3efe2ab1 3ee298fd 3b900972 3f087130 3e9ef233 be63bc47 3df84801 be1e28b4 be8b922d 3da00df5 3d927bd9 3e29a104 3d648e87 be829e1d be303551 bdb3f6be 3e023093
conv1.bias 32 3e06d295 38beeb3d 3d8226fa 3e829a5d bd74f084 be7bae33 3e02b70a be020daf 3d4e6537 be29185c 3e3a1a74 3da16329 be92288a 3e050275 bda54650 bb7f8580 38d006b0 be5b8eb6 3e94aa35 38f2a06c 3e9ac2b5 3ec19a9a 3e74e9c2 be549098 3eb7a33d bd72c74b 3c85dda5 3d851c0c 3d1b8045 38222a8a 389a8446 bd43e376
conv2.weight 18432 bcdd8b6a bd14a036 bd1b0bbb 3c67c4fb bc11565f bcff0dcc bcac93f5 bd619f2e 3c3f25bc bd153170 3d5c9031 3d3c7330 bd6983cc 3a5a67eb 3d0e6e1c bdc0d281 3c6cc81a 3d88d95d 3bef9443 bd722fe6 3d0b46d4 3d494259 bd514bcc bc1d1d70 bced268f 3d03b000 3c6f7ad8 bcf29591 bbb63cb6 3c673ada 3cc342eb 3d4b999a 3c47cf45 3d01fb94 3d1d1616 3d2d5722 3cbf9ac1 3d03edfe 3d7f95b1 bd72166d 3cc557fa 3ce5f6d3 3cfca3f5 bc1167e7 bb291757 bd341682 bd445848 bd6e309c bba382e5 bd505a1a 3c3b94a0 3cf87865 3cf05f61 3d05340e bce38851 3cf26761 bc95237b 3d17d151 bbf68172 bd17c949 3c16a60a 3ccf131c bd04adae bcdea310 bcc2d225 bd671f3e 3d2f0d34 bcb47383 3d39a36f bc8811e0 3c8d57e7 3c676a37 3d4b9592 3d34a710 3bf6a74c bd638f79 bcc1608a 3c9b97e8 bc915ae2 bd5597bb bc3ee982 bcc99132 bb35883a 3d236312 bd45669b bc80f1d1 3c90c0f3 3cf69963 bbe47993 3d2a7381 bd0f1786 bc019702 bc920546 bbcbfc49 bb83b4d5 ba6b19af 3c79255e 3cf558e8 bc965ea5 3d1e01f1 3d7716bf bc807106 3cc7816c bca5f4b3 3d7a005f 3c9aa994 3a545777 bc32f88a 3ccdb0e4 3d644444 bd3318b2 bcd79498 bd3ad617 3d25cbf5 bd057adf 3bc69c53 3ce01ea9 3cca602c 3cce0f1a bc502052 bd3df3ea 3d71c159 bcb2cb6f bd1d5ddb 3c7d24e5 3dacf1cc bc0d39b1 3d0d5bbd bced119f 3b74b45c 3c976eec 3d1e2120 bc35e0b7 3c3dbde0 3bbd3e2f bd026a0b bd37b464 bd4c8006 bb44affa 3a7f27ae bd2f0221 bca83793 3cb6d7ff 3d068565 bca2412e 3c55ad72 3d975219 bde178a0 bd9027d2 3db96c3f bdd86c5f 3ca737f4 3cac964c bba49e9c 3d3f53c2 3c653345 bd04b870 bc8478dc bd3e320d 3d20f1f3 3d581215 3b90a2e2 bd365ee4 3acebbf4 bcbca815 bd08a8e3 3d5af5b2 3d3bb8f0 3d113409 3bd1377b bd0f1a9f bd1ad264 bcab3efe 3d7f50ad bc11bd99 3cf7748e 3d4891d1 bd8b007e bd990713 3d8776a2 3c3382c2 3caa8079 3cebd5b2 bcbb8415 bd0e3f22 bc13cd2a 3d52cff0 3d3e7f64 bcadb083 bc0d8a90 3bd0e91d 3d4233ae bce5df67 bd576e20 bcdd1667 3b69db14 bc87df40 bd536bb9 3cd43fad 3d0b3f49 398d68db 3c8c3155 3cfdb4cb bd4ab319 bd8062e7 bd98aa7b bcc5a6e0 bd0a8672 3baf5f55 3c975030 bbd9af71 bbf18731 bcc8755f bbff3427 bc8b58ec 3cb1468d b98da1bf 3d386f67 bd673b50 bb10cd32 bd39ab6a 3d56a9d2 bd091a97 3d2d7994 bc4f4911 3d26a603 bd287f6e 3b020664 bd8306dd bb12828b 3b4755c2 bae643ed bd139672 bc066150 3d309ac9 3beda70e 3d20f617 bd4fa6a0 3c891eb8 bd1edef1 bc8c21ef bd848beb bc0a436a bc96c498 bd326b9f 3ce74bf8 3d6744fa bcf80ea7 bc7083c0 bd4c9704 bd08dea2 bcddd97a 3d49845e 3ce63727 3d8c43b0 bd250d0c bd339e52 3db9874b bcc4d572 bd003e9d 3d9f898d 3d7ced73 3da27e7e 3d2b0625 3cb8203d 3d25c764 bcf4ad63 bdb4c256 bd07d2e7 3ca84e3e 3d85fcf3 3c0cf3be 3d65ab63 3c388a8e 3cf2efe6 3d3d337c bc6fa908 3c7ea96c 3d77997f bb924682 3d220bec bd4ce526 bd1cb3b8 bc30990e 3ce45bba bc76550d bc95b29e bd536e64 3ce767c9 bd0f2a2f bcea096c bcacae47 3ba39ede 3c93bd24 3d1b33d3 3d381faa 3d5333fc ba62aefc 3d4d6c64 bd01d6fc bd01f8c8 bdb5a36e bd36e155 3cc4acad bc4f6653 bd78596e bd4df304 bd69a8fc 3bf5637d bbc01526 3cedfd43 3ca5b39a bd0b35da bceb8774 3d5f98bd bd1dd8d3 bc90dd1f 3d95dfdc 3c0d11f3 bcef0756 3b2a1be3 3d99a7e0 3d2acb26 3d032cf8 bbaa34df 3d42fe5b 3d5cad2b 3c9f935c bd8bca57 3c41165a 3c853293 3cdc0166 bd4f483d 3ac22e8d bc87b097 bd1e2382 bca2212a bd2c2f32 3d6c26e4 bd034fd9 bd089ef4 bd6c81b4 bd3f2367 3c838afb 3bbb684b 3d388fbc 3baa6f8b bd58d693 3d393bc8 3c24b1b6 bd64e29f bc906958 3ca7ff19 bd593388 3d3b77bb 3d36daf3 3d12ccda 348b48ca bc64241d 3d3fd5d0 3cb929ba bb1c7bc6 3b016a2d 3d1177a5 3d4185df bd2804de 3d261bf9 3d631e6d 3d4afc48 bd09e8a1 3b09f2e3 bd5b52ea bd433964 ba8bba1a bb11cdef bc948ce6 bd2e6e7c bba4a595 3d490207 3cfd2e54 bc9fa69b 3d1ad707 bd44212b 3cb1c7d7 3d39418d bccd7616 bcb17897 3d3eda7a 3d048b2f 3a8d74d5 3d377b0f bd47c3cc 3d7e6131 bd501f15 3d2a527b 3d40bf21 3d231355 bb7f719a bd1779bf bd73aed7 3cbc25fa bd03a065 bd311a3d 3c27182b 3ba1d9df bd419e08 3d592a46 3d7cb6ae bda8632a 3c1ac1bf 3c90c805 3d486d4b bc1d684a 3cb0d3bc 3d0b3245 bc5fbf64 bd0e9a5b bb638bb1 3d1ca03b 3d32326a 3d40784c bc9197f0 3ae05c66 3d165778 3d466e16 bd4b909b 3908139b 3d372425 bc63f500 3d32b111 bd5edac9 3cbd4a44 baf88e9f 3d07446d bcddba7f 3cce737c bd7e6e5d bdaf1d16 3dc8e226 3cd45b73 bcb8a187 3ccb2a07 3d3558e8 bd711df5 bd5196c1 bc9f4f33 3b7397de bd4094df bcd4d849 3bb09817 3c91543f bb1f16ea bd256bdf bbfccb7c bd07462c 3d3b1708 bcc6cac2 3d30c6e1 3ba07f0f 39b9fea0 bcdba267 3d91a67d bd8a498c bd768b82 bc26df11 3d0725ba 3d3bdef4 bd83136b 3d3bca8e bd159c1a 3c216e80 bcffe3fc 3cba9945 3d6774a1 3c8beb3a 3d0409e4 3d4a4af1 bd2c9347 3d132d17 bc8cdb23 3d62318d 3cded829 3cb46379 3d8ded9a bd201922 3d1a35ed bd39c814 3cf42195 3d31f75a 3bf2b664 3d1755ff bd529eb6 3d7061d4 bd2ec29a bcde98e4 bd1330bf 3d24e396 bb512eba 3ce84494 3d255daf 3d5d3497 3ac95c62 b8b1c24a 3d484575 bd36ac08 bc75e012 3d2aa60f bd0e2f76 3d7146e6 3c77befb bc5dc99f 3d3b1f0f 3c22cf9e bcd393b7 3c31f7fc 3c8dd350 bd032476 3d2fc80e bc10bb29 bc7dc9c1 3ca0f6ef 3cad46fa 3c6584f0 3d7d256c bc075f95 bd565585 bcd6fdbe bd66997c bce9e677 3d3c0a7b 3d2f20f2 3ce57ab8 3d58e99f 3d860564 3c822fb5 ba724ec8 bce1ec6e bc6558a2 bc988236 bc901ce2 bb82b844 3cdd245a 3dccc4c0 bbe183a9 bd927e69 bc9e35f6 3c64da72 bac28941 3b4604a6 bd3f9893 bd23bf7d bba0e216 bb70cfca bd8beec4 bd5b6dab 3d4d484e bd3eb4a3 bd77426e 3c73fbe1 3d12b5bf 3c763699 bc1f30bd bcf976ed 3c19e573 3b68ee36 bcf76d83 bd7c7beb bcbe7555 bd6fca8b 3cb436ea bce8f9d4 bd00eda9 3cda7fba 3d099850 3d29ddfe bc925791 bca67d64 3cf03745 bce04116 bd6ebe2c 3d06cbbe bd0f2786 3c5aff0d bc9f34b1 bca52ca6 3d36f6c9 bc34b255 bd22720c bd21ffb1 bd611e2e bd18dee8 bd3b8004 3a287341 3b3faf6e bc1c8427 bcf092ee 3c89b5d4 3d14879d 3cb7898f 39ef10ef ba41f20f bd1d5c25 bcd4cf65 3c548dc7 3b480d9a 3d66c745 3d3fdae2 bd47b081 3c319cc4 bbac445c bc8629e3 3ced6525 3c70d67d 3c1ead98 3ac9faf5 3bbddd84 3c44ebb4 3c92c6ba 3cd8fa85 3c888571 bca4cb42 3c0d1399 bd471232 bc6cbfb7 bd1feda3 bb3cc4f9 3b340591 3c8c74a9 bc90bfeb bcd3ed18 3d26371e 3c3a6df5 3bff7272 bc0d2e6e 3d3b2be6 bce17581 bb8e1140 3b485cc9 3c4bfaba bcf2f5dd 3b7e3529 bd458e40 bca3986b 3c9e8996 3c870480 bd32f675 3d1c78f5 bbfc9a09 3d2e2b63 3d0728b1 3d00503c 3d5b9cec 3c70ec94 bcb02ab8 bbfcd3f1 bd249254 3bd6e704 bd172a95 3d58bc7b bd4c9092 bd5533eb bd70f452 bd05044a 3d3af247 bcc623db 3d38ca1b bd2a3745 3cb92428 bd377052 3b97cbfd bd3c43c4 3d073022 3bf4e323 3d557445 3d0664c5 3d3b20d0 bcd7ab65 bcfea9e2 bd486b97 bb252464 bc0cd44e bc9c883e bc86ea29 3b2cb4ce bd5fa775 bd58b218 3cf12d88 bd55be2b ba466caa bd0f878f 3d187f24 3d70f472 3d30b86d 3cf76eaa 3cdbce95 bcbcd57c bd6df07e bbe37210 3d46284b 3cdcba65 bd268902 bd52da17 3d1b8e44 3c810252 bc5d4142 3c8ad0f6 3cc7c06e bcc2ff1a 3bcea111 bd0ef2c2 3d15eb86 bd16c2dd bd0068e1 3c72658a bd0fc57b 3cce6cd1 bd29d323 bce26a94 bd092049 bc525f45 bd0cdfe1 3d4f6e5a 3d3cfc7d bd3b5ff0 bcedfd99 bcd1f81f 3cd0cc5d bd3a1082 bce200af 3d0e779e 3cc0dd4e 3d3f9349 3c834027 bc9c5dc9 bd3901a9 bc7f8039 bafee481 3d103bd9 bd54f5de 3c990278 3d4f7386 bbc50ab6 bcfb9619 bcedfb71 3cca6473 bc08cb2c bcf1ba30 3ca6a9be 3b7e3f70 bd129416 bd15b117 3d552214 bb8588d4 3cc0d308 bbae2276 bced967a bcbb96a9 bd3490a6 bc2b8fd4 bd4f8222 3d0b0cdb 3b925ff1 3cdd3dcd bbbb6312 bd603ecd bced6ab7 3d10e2b5 3d2d0c35 bd2f9ae8 bb4cf566 3d57c21a bc8146a6 3d12acbb bc8a1b83 bd5aa4ee 3cd04250 bd60f8ea 3c22b662 3c1be257 bcd20a15 bcfc53b6 bd5a4a0e bd2d0779 bc846910 bd2bf0e0 bd13fd1a bd61ab99 3c1ea891 3c95bc7b bd21c1f3 bc6225de b91e07f0 bc2194f8 3cb80a63 3b7316d4 bcd6c15b 3d34cadf bc93d8fe 3d4fc5b9 3b882fa0 3ca59d61 bd2a3e2d 3c88b247 3c8719d8 3d401865 3cb2d954 3c606f8d 3ce5e8ea 3d481bd7 3c85f1c6 3c6c5434 bc73d1be 3cd633cd bd573244 3b2ed5f6 3b31f1ef 3cf06360 3d5c7bc2 bc5b4626 bb16435d bd2ba619 bc878451 3ce59144 3d10c73c bb983336 3bf0e10e bc913711 3d2d6ca0 bc071b50 bd436ae1 bd3ee9dc 3cfc9aec bc5563ab 3d159075 bd0eb042 bd4f0c42 bca3bb14 bd244aeb 3bc87c12 bc487048 3bdda93f bcc99683 bd355151 3d00c76c 3b3f6d20 bd258efa bc8be63e 3b55f505 3d59c211 3d3f08fa bd62b141 bd4a114a 3c94d6dd 3ccd38e0 bd039083 bd11a70b 3d5ff122 bb7a5955 3d1e8ba8 3c0f4c2b 3a67c3eb 3caa1efa bd6df25a 3d29a720 3cff9b00 bd17201f 3d6767cc 3d42bd0e bd403a71 3ce616c0 bcb57ee8 bd044f45 bd6926d7 bc3debbe bcf50bee 3cd88f7f bd468fe1 bd0e99e5 bc6fc339 3d4c2b55 bcbef288 bcc28bfd bcfd321f bc7c38ff 3d6ef7ee 3d4eb487 3d5c759a 3cd222c2 3cd57051 3d64050e 3d3ebffb 3d0d9f63 bcf1735d bbb661dc bcc6c718 bcc36a06 3d0c688f bc5a8a88 bd42f4c8 b9a525a4 3d16a864 3c1ae949 3c62bae0 3c05883c bd5e8b2a 3d287b54 3d6694c4 bc3f160a 3d028623 bcac7235 bd2bfdd3 bc966527 bc3e3ba7 bcfe80e8 3cc8c9e4 3cb4d818 bd2a73fd 3cb61f47 3d2017c1 bc8d16af bbc30820 bd00aa7f bd137615 bc972140 bd67a615 bd32a919 bd3e0e33 3c88915d bcbf5547 bce47bf0 bc1d5033 bd7124e3 bd5491c8 bd30c018 bd683798 bc4758ee bd5bae30 3c49c3b5 3bdd69e0 3cfd86ef bd42481b 3c9b585a bd3161d6 3d6b0bc1 bd05a709 bd006bea 3cf6466a bbe0ff08 3d31b27d bc1ef63c bce7d4d2 3d56a281 bc405262 3d52b6f9 3d324592 bc0d3772 bd157c4f 3cb1ceb1 3c25111f bd12b769 bd0ff1dd 3cfc555a 3c6b1b7a 3bf3217f bd38701f 3c5a637e 3d0ab9ae 3ba89809 bd125414 bca6c042 bd68fd27 3beb203c 3cd214b9 3d400dec bd6f554d bd69a30b 3c27109e 3c0921e1 bd50b07a 3d1e8de7 3d67183e bcc5ac8f bce91c7a bd08e403 3c9ab702 3b4e2a9d bd87415d 3d659caa 3d887f06 3b6af29c 3c7040c4 bcbdb7d2 3cfd9ac6 bd13fedf bd006300 bce62668 3d197df2 3d5e30f5 3bfe78dd 3c6bd3d8 3d5922d5 3cafb9ad bcb49344 3cc06f1e bd4489ff 3b2b2cd5 3cad5f4a bd549f60 3d3bdaab 3d8bf669 3cb0f68f bd28e575 bcc0b6cf bd346d69 3c8787e3 3d74a808 3d9131fa bcba0d71 bd672fe3 bc9af741 bc32a02a bc60677a 3d5a0a7b 3cfad108 bd42f005 bd56d59f 3ab19640 3c9a9651 bd4dc957 3c27863b 3cc2bd7b 3d046b20 bd2161a3 bb9ee98d 3bb23b58 3be3c389 bc61f725 bd337448 bc5967f4 bd0c4a7d bd8562ce bafb0e80 3d17fdbd 3aeac3c2 bd487a17 bcfa7bae bd05591a bc967da3 bd048d85 bcdc0802 3cc1b8e5 bd30da8c bcde6beb 3d31738f bcfe5449 bd0d61b2 bd354e99 bce01491 bc8ec154 bd164024 3d51f2f8 3d6be61b 3bc9bbd3 3d27e271 bbb39e13 3b95d24a bc27f10c 3cfbc762 bcc9b3b5 bd1e1887 bca66418 bc490a7a bd25b907 bd68a2c1 bd6c54b8 3ce9806b babf18d2 bd5e47e7 bb2260ec 3d4d7fdb bd277b07 3c12eaa7 bcf5c83e 3cb33255 bce1eb9e 3d216bd2 bd2820df bd4b0ad7 3d0d30d3 bd563116 3d680174 3ca22fd0 bd3367f3 bd1d045d 3c847d86 3bc247df 3a344802 bd097828 3d6bb1a3 3d0eb503 3b9d5a01 3cdee38a bd3b5d4e 3c473ef6 bd133cb7 b8ab4096 bd299832 3d2cdd95 bd0b34ae 3cd2e584 bd20f28a 3d6301ba bd07cc74 3cb1e0bd bd15c2ad bc2be892 3d02e63b bc39cc32 3d6adb67 bd2c8470 3d1e64ad bc7ca604 b89bbef7 3d49704d 3cf20743 bbabdca9 bba8ff0e 3d2008a1 3cb70de1 3d2d015c bc0b1b6a bbc23fb2 bd1a75b7 3d870b31 bca9423e bcc3532c bb8df73e bbb5a24b 3d48d548 3d49be8c 3d28e6fd 3cfdc841 3c9b4d59 3c2e9e78 3a8a5e9c 3ce86113 bd01918a bd352b29 3cc96a4e bbf42e8c 3d1a74fa b99a5812 bca5f34c ba53ce74 bcae06d3 bc80710b bbe8f758 bca1514e bd61f5c1 3d150180 3d60a1d4 3d4c7424 bd37313a bc02f289 bcf91904 bd7fe668 3cd37e66 3d8b0167 bcb3436a bd04703e bd18d6f9 bcf462c0 3c0b2270 3d3d7247 bb31ea69 3cdebbbf bd664337 bcf3d364 3d3f25b9 bd130186 bc7e048f bc992e4e 3d0f3562 bd5045c9 bd15c5a8 bc22ffce 3d104192 bd3e907c bcf1cfa5 bc9c225e bcf9bd16 bd480c9b bcbffbf8 3c0fc89e 3becc666 bbfa329c bcf6b09f bd5df8bb bd31a379 3d1ae7b3 bc6f33d5 3d4e84ea bc49f3a4 3d679669 3d5ff538 bc1985d9 bbd8e46e 3c1f1709 3b44e19b 3cc7e957 bd5b51c0 3d0b9d4b 3cdf8519 3d6b9c3c bd53124e 3d2a78a7 3cf8a27a bcbb6aef 3b379ee4 3d13b175 3d06394d 3d49304a bb8de8e8 bd3f4d54 bb8a428e 3cb9e1de ba333ccb 3d51b377 3cb8b508 3d67ef2e 3d58240c 3d2e9b24 bc830005 3c674257 bd6669d5 bd07c364 bd21db24 bd57e94d bbda6cf0 3cebc4e3 3d258b05 3d08422a bcc3f504 bca725fb bd112cde bb8bf09d 3cf84919 bbf1323b bd64b9bd bd199dab 3d22df0a 3b6c60e6 3da98576 bc785c26 3d661080 bd6f9ad4 bd553a51 3cd27ad5 3aa8e134 3d6b47db 3b91059a bb8e92da b994a982 3c59a3ad bd27bda8 3b613709 bd1794c2 bbf2cec2 3cc81c58 bc7b73d7 bc8fce2f bd12c0b3 bd4b45a3 bd5ff07a 3d413c2d 3d161ce6 3d4bda02 3d9d0881 3cb15aea bd3046d5 3cbec8d3 bceb12a9 bc786e30 bb8c5c29 bd6e88bc bd61c8f5 3d0737c6 3ca60e1f bc86fbfd bd39f50c bce1555e 3ba8967d bd312654 3a3d17c3 3d478dad 3d1dbd34 bcc977ea bd15ae5e bca4710a 3cb0f4f7 bc817cb5 3d47be71 3ba932d5 bcb479f2 3d01ab11 3d5bc1f7 3cf19f33 3ce968c1 bc9d718e 3d138030 3c8d8c41 3c59fb31 bc696085 3d4b3657 bc2cd468 3b94a603 bcc1b623 bcfb9c9c 3d13d97a 3d13538b 399ef808 3d613f35 bd1a0330 3cf33b12 bd2f3d88 3d16c0c3 bda860c5 3c0aa5d1 3d5054fe 3dcb8ea1 3d32d90e 3ce31fa2 bcbea18d 3cbfe26e 3d8f4e18 3d16b2e6 bd2c7045 3d3a4659 3bf0b208 bd075aae bd0a9401 bcb22033 bd66f412 3a4febd1 3ce91177 3dbe2955 3da3181c 3dbc5278 3ccaa125 bd178f89 381c8068 bc47e0bf 3cb41df1 3d19789f bd86429c bb2e0b83 bcbbf0b4 3cd6eec0 bd2bfbcd 3d6f8e6a bc3b5d7c bce356ec 3d3c0569 3c4db079 3d120650 bb1fd7bb 3c888b77 bc6f19f6 3c117e45 3d1828cc bcf12878 bc0ca956 bcea9baa bd453659 bc8d9b4a bd56a1af 3d3498a8 bd147f8a 3d1a5d64 3d06ef57 3ce9e326 3c9237fa 3d48da28 3c8ca443 bce63958 3b340d6b 3d577270 bceefc8b 3bb253dd bc91702e 3c81c0f7 bcbdcf9a 3d594a68 bb87b8b5 bd1f3394 bc7f2dc2 bcd0ce31 bcc7181f 3d59d3d6 3d35a04c bd687e3f 3d5e7f1f bcecb1b4 bc9968df 3d8d553d 3d011e9a 3ce347df bdbea98c 3c1a466c bd1a757f 3d8f6dcf 3d61716d 3d876702 3d2348c1 3d336c33 3c95693a bd988473 bca35f2e bd5290e3 bba0c55d 3d4e2d8c 3bf402bd 3dad60d4 3d02ea82 bd2b7cc5 bdb732ee bdb44b7a 3c045d37 3d1dd66e 3d2ecc73 3d646a5e bc9455d6 3d52ba57 bc1fd1c3 bc9e9361 bd015d8c bca6e59a bd1045b9 3d09c61e bd5c064c bd3b5191 3d798f42 3c8ffffa 3bfa98f6 3c15664b 3ccf4ba5 bc36d212 3cd6167b bc1200ac 3bbafc90 3d811489 bd73d5e9 bbf6443a 3d40c303 bb458c3c bd39a3a1 3d808caa bae72023 3c8079b8 3d055d5e bb9902bb 3d321883 bc82d18e 3c8c9db1 3d147b2a bd723c40 bab04267 3d4a9767 3d52a276 3d136273 bd00bf0f 3d4123e9 bced1363 bc18668e 3c906238 bd428f10 bcf17e2d 3ca9bbb7 3cfed6eb 3d519091 3b07728d bc8f8171 bd3d0656 3c8609a8 3cb2267e 3c396904 3d2171e2 3d62e398 3c855480 bca702ba 3d27544d bb0e5390 3d234df7 bbe37279 3d54ac5e bccb7344 bc99b4b1 3ce14a00 bcf6e53b 3c9673ca bbb9102e 3af20f2c bd0cab31 3d11e6a5 bd28e29b 3d4b1fb2 bd0add8b 3d603348 3cab85ae 3cd21772 bba0cd15 3d0ec441 3d268c44 3cd992d7 bd4de179 bced4059 3c634532 3d2304c4 3cca5daa 3c2a921c bd58376c bd472f4a bce86594 bd1ced23 bd3d35df bc652aef bcb003e2 3b194a90 bd34543f 3b58c8ad 3d5ef2c4 bd7ee5bc 3d000aab b99011f4 bd4fe26b bd0f6ab1 3d2341df 3d1889a4 bcbd2162 3cb1f516 bd3c2620 bd82bc02 bca5f028 3d0fa959 bd82c9af bc27e0ce 3ce0957c 3ca0bd69 3c8bc5c2 3d4f6cb6 3cfe5520 3d0344f6 bce76f44 bc2aa29f bbd5e858 bd0cea45 bcf2d97c 3d35ce46 3d58f25e bd134f87 bcb194b5 bb793862 bcae8dc6 bd055d30 3c307f76 bc8a237d bcf6e24b bc95b264 bb5ec7ef 3d1fa337 3d32f6f0 3d620ef4 3d2f29f5 bd3cbf7e bd6aa36d 3ccd3302 3d011b10 bcab8388 3d1ffd98 bd21625b bd6d1d2e 3d627828 bd035eb7 3d39262b bd0901ee 3c9b3ed3 bd47231e 3c213a50 bce71bff bc8db57a bcf0a62c 3ca96bce 3ca6ba51 bc8a042f bd12a7a9 3d07769c 3bbc77cc bd6bfed4 3d54814a bccf1a52 3d3bba70 3c52e8f4 bd4fa752 3d69f953 3d71fc7f bc7d3da3 3c413cdc bcd8b85d 3d35d501 3d708abc bd381acc bcccaff4 bc25c311 bcea156d 3c8e1a2e 3d820c35 bce5d1f8 3d1fb8c0 bd140c94 bce31b72 3d6c1aa2 3d320c14 bd427849 3d8539ff 3cacbb42 bd4f861e bd35e908 bc7c3889 3c864627 bd2b7817 bc196f04 3cb2ef5a 3d4ad58e bd11b014 3ce04cfc 3c622b9f 3d0c1a68 bd1aafc2 3c686ed4 3d2d3b50 bc553594 bd192669 3d630305 3d1aa768 bca901a3 3d850126 3a982632 bd302b9e 3d520a0c 3d25d899 bc956912 bc91d6af bc39c3ed 3d08e84b bd678ec1 3d34917d bcdddabb 3d00ac50 bd1cb884 bd3ed06f 3d5de9e7 3c23f884 bb7eae23 bcd3149b 3d2872ed bc9dc1bf 3c4ed5dc bc8effbf bd08b6d8 3cd434fa 3ceff51e 3d61dc5a bd4f0c6e 3d389530 bd360c18 bcc4de9f bc965321 bcd6c274 3c80596f bd5eaa76 3d2dd448 bcfdc972 3cc80eaf bd767f4c 3bfde468 bd62136a 3cfa44b4 bc44ff54 b9a78499 bc6f5f5e bd35ee51 bc786ddd bceeb51b 3d8dfe73 3c68d66b 3ceaeb10 3d8b0a2d bccd1842 bd142596 3c088157 bd8195bc bd496465 3d9382f9 bd7b560b bd270d24 bcd18f8c bc4dcb9a 3d537691 3d975c6d 3b8e60bb 3d7847b1 3d5d4d2a bd5e56b1 bba9f16c 3c93b997 3d1604d3 3d56b341 3cbeb3a1 3c26d6b4 bc8e4dcd bc1bd9df 3d07a7e4 3d136562 bc002edd bba0a98b 3d16e326 3d4c5f79 bcb2f5af bd3ab128 bd155ff2 3d42b453 3d5c3d89 3c8d4f90 3ce84cc4 3d2f2087 bd379014 3c3c9bcb 3d2ecb7c 3dbdb6b2 3b93acf8 3ca9bc8e 3d940325 3cc946f7 bc01df1a 3d8d7b12 3d28137c 3cbb42c8 bd436f12 b9c8cbbc bd491006 bd13d0f8 3c047c0a 3d2235a9 3b982954 3d2c438e bd3db8ec 3d6183d4 bd120fd4 3cde48ee 3db2f7cd 3ccc61ed 3cb83707 bc5ff2bb 3bdf9d89 3bdd8266 3c58879e 3c61589b bd16525f 3c856213 bca53036 3d4a41e5 3ba3c29a 3dd17f83 bbe88aca 3d433fca bd624738 bc7cb743 3c8eb3dd bccbfd8f bceb0783 3d46237d bd04a9c6 bd6888df 3d557827 bd47dde5 bcbec5a5 3d095089 bbbe3d09 bc2ac9fe bcb69f48 3ccad873 bd179080 bc8d8fb3 3d07d8d5 3b4aa205 bd01557b bc98852c bc0f8f75 3c822a96 3cf875d9 bd263bc6 bb898195 bcfd230e bd63b79a 3d3e1333 bd32a8e1 3d5bd5db bcbe1162 3ce871dc 3d2a5b66 3cf78edf 3c0ef3f5 bba9e28b bd572342 3bc155de bc989199 bbcc3204 3bbd90ca 3d23c741 bd2cf906 bd227aa0 3c983b8e bb6eb63b 3d2fe132 3d02b9d3 bcd5dffe 3b6198b6 3ce3d029 bca446fc bcb1da08 3d79f9a4 3ca69429 bd8b6dd2 bc4cd157 3d5b2e4d 3bd12749 bcef4cd4 3d42a73e 3c84b054 3cc0ad51 3cc0dd4f bc4fe367 3d3e9ac5 bd768590 3c7fba65 3dc6777b 3e068f95 bd8d7006 3d35ea75 3da8595f 3d245a00 3d101df4 3dab99e0 3d997ea9 3cfbc4fa bd3f7ef4 3b88d26b 3d079b5f bd1ad8b0 3bfab623 bca2e8e8 bbf13228 bd4a6c14 bc66d7ad bcd694b3 3d1b1a85 3d7e2f63 3d633b5e 3d40349f bcb0d6b8 bd1dad36 bcde341e 3de0a3c0 3e19ec4b bd0b5cc6 bda02c17 3dd0b6d9 3d5641cb bd5a187b 3df77df0 3e2bea1d 3c182a8f bc3832cc bd17991a 3bdd8ee8 3b16367c bc78329a 3d6a5926 bd1be908 bcf79f64 3ce9dff8 3c4fccd3 3d896083 bd815112 bd2e6ce2 3d8fdaed bcabad2a bd2244a3 bb792710 3dc57c95 3e0f98ff bcccd6da bd8393f7 3c73c6df 3d9b290d bd078f87 3d302f40 3e2978ea 3d405ab6 3ce228d2 bd69063c 3cd0db50 3d4ef428 3a955d06 3cc5ce35 3d277ba9 3c5bf402 bb8a611f 3c90aef3 bcfa2eef 3d25e578 bd308fd6 3d675b7f bc8560a8 3bb45511 bd0dde0b 3d0e7f47 bc9dd603 3d8300fa bc470b89 bcb55925 3c93c067 bd5a6f0c bd50655a 3d24a6d1 3d098e1f bc208fac bd2ade71 3d2eef79 bd140510 bd511407 3d31c66a 3d23272c 3d56d4c5 bd85e5cf bd439a8d 3d8f499f 3cf53654 bd35baf5 bc486be1 bd4ed732 bc99cc0d bd89e23a bcf3a7e1 3d502027 3cf62c70 3cb2cfb5 bbf00eba 3d07820e bc7d3eba bd0c6fba bc47cde6 3d2e0a4c bc2c556c 3ab61e13 3d59d11f bd135e19 bd734584 bd6b9ffe bcb2783c 3c07d0d7 bd21abc2 bd387dff 3d35c38e 3d71fcf4 bd71e722 bb559c03 bc8cdc91 3d45bd66 bcf7982f 3d7c0c4b 3d9635a2 bbadd91f 3c751b1a 3e0853f1 bc45d123 bd35a957 3e0848cc 3e0b79bc bcc72f86 3c71fea5 3db08736 bd4a6fd0 bc903892 3cae3ce0 bc8372a2 3bf3842b 3da36d9f 3cb0d8ec 3e06c45d 3d3f7722 bbd2d4e1 3dc37088 bd0f0949 bda541a8 3d812b3a 3de621c3 3cfac85e 3d1de54f 3c262d46 bcfd65b4 3d03d257 bcc5073b bcfa9dd6 3c724e07 3b9214a5 bd837051 bd4536a1 3ce0ec5b bd66bcb4 3cefb29f bd473864 bbd59c46 3be18740 3d0d0014 3c8ef1e6 3cd889b6 3daaa2b5 3da3d24a 3d71c741 3c88ad0d 3cdb8ed2 bd1569be bd4f93ab 3bfeb7fc 3d1d2cee 3c047d68 3d6268b0 bc14eb17 bd586e95 3cb7e8b9 3d2c7cde 3b02f902 3a0d3d6b 3a9e657e 3c310785 3b0abde6 bd596a3d 3ceca078 3d46f9fc ba7afc9f baa22b44 3d6595b1 3c51f888 bc7f8289 bd2a44d2 bca0aaf1 3d1c0936 3cdcdc44 bd94ba3b bbbfb5be 3ca8c384 bd37ba56 3d232965 3c4b1f83 3d02d59e bb696558 3bb4dd0f 3be47d4a 3c9b4b13 3d3817fc bcaab8a9 bc33a520 bc525db8 bcd84fb2 3d5647a8 3d472103 bd6d6182 3d490bed bd3485be 3b8496df 3c827dc2 bc4fe65e 3d1c6510 3d3bdf42 3cd827e7 bb58a477 3cc76a37 3cf72bc2 bc797ad6 3c52e329 bd0a0495 bd4df66c 3c26b866 3baff445 3d0f70c9 3d165843 3bb6267e bc3befc3 3d87c23e 3cb1c5be 3d62886c bd17b8f1 3c9baadb bcead323 bd1e40b4 3d25ec5e bd54182b 3cb68292 bce826c8 bca9f492 bd1e133e 3c4c41df bce0b73c bcca1019 bd86e721 3ca69a52 3d56197f 3c72c4a4 3d7d1771 3c7566b0 bcd2df97 3d771a1f 3d53439f 3d6a2b31 3c1e048d 3d616af0 bd1be519 3b824638 3d2df85e 3d3bcbf0 3d4c545a 3cdc19b7 bb93d07e 3dced30a 3d8ee77b 3ab4a187 3d267a2d bc1c2ce4 3d67750e bd52b7de bc47f6bf 3c3d6a4a bca5a27f bac4df82 3a16de2c 3d6ff73c bd58979e 3ca42a15 3d011a2c 3c95bede 3ce11be8 3d068145 bd107c90 bd408364 3d344a51 3c68b7b3 3d0c71eb bc821025 3d21912b 3ca58181 3d939d35 3c5d6551 3de36aa7 3cf87466 bd552dc2 3b53f23f bd81beea bd5b34e8 3c9748a5 bc5e0d5f bcb0d7a8 bd2a1298 3d59ddcf 3ccc837d 3c07e788 3c20e6dc bcc3caac bb807ba5 bd1f9f77 3cfb3809 3d54fd5c 3d0442d7 3b10da24 3bff91fd bc15fd92 3ca75776 bd2fc80f 3d911067 3ce194c7 3dc7d0c1 3ce1d92b bd8ae60a 3d7d092e bcec4cc1 bd741e04 bd348997 3a547512 bca31120 bd79c23d bd2f097b bcc1a79a bcc3b719 bd39c608 bd55ad11 3c1d5284 3a2e3b47 bd8ce0d4 bd484030 bd084915 3cb9ed69 bd398379 bcbe38d5 3d375f55 bce0301a bc5bcefe bc4584d2 3d43cb4d bcf4a24c 3cb49a51 3b22c24a 3d74ba56 bca98f89 bba5b3e6 bcafe0d8 3d2502ce 3ca3f47e bcb19149 bd04a557 bd417b8b bd2c91cf bd690463 3d4fe543 ba422334 bd4fe2b3 bd4404d2 3d4f3326 3baf1016 bd48c123 3d245e44 3d52da34 bd045b3d bb787903 3d15ce25 bd01b293 3d3801a4 bd374ca7 3c966a0f 3cbd6cb4 bd81b057 3ce32018 bd748715 bc2d81c2 bd2a2843 3c8c6d52 bc8a97e5 3d4d62a7 3c6cfdc6 bc9c25bd 3d21947e 3c4f4c82 3d4d0a4e bcf36152 bcd50c30 3b8e70eb 3d049ef3 3d72e265 3bc5a45e bc366502 3d80bc47 3d355092 bb9a9915 3c8f7cba bd33dcf1 bc83e246 bd929e6e bcd7e63a 3d05683c 3d711c59 3cce986e 3da3d19b 3d4c86e8 bbf8ab62 3d152fdd bad018b2 bda31bcd bcafa8e8 3d918f85 bcc0732a ba90533a 3da26ae6 bcb8a19a bc280b1f 3c1e8432 3d09b6e6 bcedf5fc bc21108f bb1622d1 3c3dad6c 3d57f050 bca6d8cb 3caa3dab bc315315 bd2df4c3 bd26d7a9 3d124795 bd2b0db6 bcce367c baa02de7 3cfd228c 3c9a3c60 3babf678 3d7d5cd7 3d85b86a 3d725792 bc6a2ff3 bc706a03 bce6503d bd8602e9 3d2e1bd8 3c679e24 3c023a10 bd5ec7cc bcd40f04 3d524a1a 3d2a2755 bc753b1d 3d4a69ed bcd41b8a baf5a3c3 ba044642 3cf3633a 3d8a44c0 bd476eb8 3d879a22 3d995cde bcb4121e 3d0194fd ba0c0f4d bd22041f 3d197395 3bfec377 bd12ed82 bcbb5e93 bba6a876 bd834904 3dbc4eff 3d74207e bc36d7c7 3d2e6938 bd124a2c bbaebf68 bc47eb6b bd31e44d bbb39550 3c2e04bb bd50c3a9 bd22991a bd415ff6 3d1af678 3d3b4551 bd12eeff 3d13b4a5 3c7a4008 3b491a3c bc9b672a bd5e32c6 bd3ab185 3d3aa633 bbf528f9 bd6b2fe8 bd24b41c 3cf8d3a9 bd5c7adc 3ba372f7 bd254ee6 bd5bff4a 3cd60cb9 bd76834d 3d17bc25 bd52f7e4 bc473013 bc8e4f39 bd5266b8 bd5ebbd7 3d40d010 3d0c68dc 3d91265e 3d606588 bbefa54e bb30812e 3d0c1db0 3c7c4eb7 3c115b83 bce7e024 3cc379b5 bd6be75e 3bba8653 bd152496 3a61d732 3c4245f1 bd86e847 3d138245 3c81c6b3 bd019bb4 3d33c2e4 bc8824b8 3b8b84d7 bd98be4e bd010fbf bd4db6b9 bd677b40 3c30c0f9 bc1d5244 bc0b344f 3a8bfce9 3c59a8ea bbca31b9 3ccbcee1 3d3000db 3d088717 3d14d832 3dc58b22 3c62f3d0 3de4ea6f 3d575b97 bdcb633c 3d9c21fb bb02a228 bcb7f46a 3d0c4b20 bc233e74 3c059674 3c2f880c bd29ef2d 3d53e3b9 bc138e3c 3cf25cff bd28c960 bc96eeea 3b0c6c30 3d6e6f95 bd109767 bcf606ac 3ab36417 3d8230e4 bc9e4fbe 3d2efa42 3d461b0e 3e0a491d bc93726b 3dc73874 3dc8e7be bd4f84e1 3d7c38f0 3c9f68c9 bd549ce3 3d35cf19 bcf57966 bd22ed34 3d6b60ef 3a75a7de bcb71b53 bc9578c0 3ca9b4ff bd19b72d 3cade511 3c3d3812 3cf46c2e 3cef7d17 bd1283f8 3cdf7fa2 bcc18a70 3d831711 bd6f7345 3d880108 3dd91526 bd51568b 3d7636e8 3c92c362 bd258702 3dd30cc5 3dc790d5 bd38a967 3d020a61 bccbd67a 3cfc3f10 3d452852 bd79e36e 3d05bc7e bd838d48 bcc67753 bccbbc86 bd54f4ae bbdca287 bd49ceb0 bd6becd7 bdaf949e bd3d59b3 bccee054 bb640597 bcbfca4b 3c6cb2e7 3cf34fed 3da94aa3 bd1f6e8a 3d097303 bd5b922a 3cb3cf78 bbdaa059 3d2b75ac 3cc7f32e 3c295ede 3cc1af61 bd0aef05 3c3a6967 3d13b9aa bd4a549a bb1f901f 3d4a47ea bd122ede 3caa97ce 3c126650 3d4c75de bd147679 3d6da350 bbb7189c 3cf04b8b 3d3278eb bd347d11 3d5a3577 bcca6aba 3d693ca5 bd3b361b bd1b9cd3 bcaf724c 3c0de486 bbb67a2b bd65feb0 bd6640b5 bac6441d bd834872 bd769e1e bd39536a bd413001 3d51c828 bd531a94 bd43bc20 3d0afd3f b9f71203 3ce9a80b 3be5c8d8 baa63fec bd972246 bd6efda5 bd720d84 3db4d5be 3d39edf0 3d76155f 3ddaf97f 3dbcd244 bd73883a 3df54e98 3dca1db2 bdbbf85b bcd0cf29 3df4d227 bbdaa1a3 bcfded25 3d46aff5 bb3e6154 3d315ab9 3db037fa bd406442 3cb4e183 3de0c86b bd21e521 3d4200d5 3d09d4a8 bd35495a 3d1fa3fb 3cbf1aee bcd30352 bd358a9e bd53ccf2 3d69a78c 3d41642b 3d6a9ce1 bd4d5a6d 3ba4c1f6 3ba063b4 bc962261 3ca7a7c3 bd653139 3cd1507a bd1fc89e bc6dbea8 bc96e58e bc88d862 bd2fbb59 bb92cdb9 bbf5655f 3d5493f2 bd6eb09a bd0eb9bd bcbc2b81 3d4cd436 bd3e8ca7 3d2a9966 3ce66ce9 3cb85248 bc1e3b77 bd54b7c0 bd38e693 3d63df4f 3d287d8d 3c15a3c6 3d01578d 3cae5e6e bcbfabb0 bbfd9378 3d17d463 bd4250fe b98de2a9 bcdab9bd 3c3f69e9 bd48faf4 bc20bb13 bce68941 bce45289 3cb6adf7 3bb5abe3 bc97fd19 3d00ac9b bc617e0c bc0227fe bd59e6b0 bbfdff5c bc94e7b3 3d08c32a 3d621423 bb9dad31 bcf43892 bd1acd0c bd4bcad1 bc36abbe bcdb87be 3d35e025 bd104b46 3c3ba23c bce1407c bca2717b 3bd05a4d bd462f62 bcd7e302 bcefa8ee bcf4e6d4 3cb60817 bd44f0f1 3d318020 bcbc1f28 3d3a0ed8 3cb1be9e 3c5f0c06 ba8a2d04 bd592b74 bd14da53 bcac05f6 3c82c51e 3d3a6fe5 3c4fe044 3c9e7ff4 bce56814 3c5a9063 3d70989c 3d0ad4b4 3c910bf9 bcf57f1f 3c93d086 bd4ed3c8 3c11f3fe 3c945d4c bd0db4db bcc2e876 3d39a8c4 bd4055d6 bc633237 bd422d5b 3d34a6bc 3d1c2e27 bd1a0561 bd4cceff bd2666f3 bc149c8e bc86e5f6 3cbab168 3b132bf2 3cdb12a1 bd4f9e7a bca9a43b bb057675 bd20db07 3ca608da bcad71f2 3d30b152 bd2ecf9a bcf7b277 bd0b84ce 3c19ead9 bc308027 3b9bcb01 3c90f3ba bcec9bba bcb26fa8 3cbfc110 bc3dc9de bcc625bc bba10aeb 3d662953 3d24057d 3ba1618a 3cca4b8b 3d0f09c1 3d53b926 bd52e6d4 bd2e24de 3d3b5260 bcc5a6fc bd5d0087 bd63a940 bd5a0a3b bd2a0a81 bb2794e0 bd547b55 bc7dc7f8 3d4bcdfa bd65525f bd3f75ef bd071542 bd119dfc bc1cc7f8 bd3a7699 3bf06409 bd3a3d4b 3bef7ced bd654d02 bca13768 3ce3e880 bd3f16c1 bc016200 3d19af39 bc65745d 3cab3b6c bc7eeb9f 3d6ca872 3be95f37 bd485757 bd445505 3caa489e bc8daa14 bca119db 3cfed1ee 3c692be4 bd5add40 bbfa63a4 bab5bd81 3d0ad5b9 bd2e1f66 3c586885 bd11d5e2 bd6be6ed bd2eb879 3c8a043e bca89b82 bd67c9dc 3b753ba7 bc318924 bad5097f 3d158f76 bd43fade bcb692a4 bd52c75d 3d3189b7 bd163c6a bc063022 3bb54077 bc5db4de bb57f8ae bd228087 bd50bf0d 3bef1191 bbc0691e 3c7384b7 bd5f8158 3d18462c bc5f401d 3d0533bd 3b0a2d04 3bccd80a 3cee158a 3ca6018f 3d712d20 3cd1170e bcf827d0 bc9977d7 bd15398e 3d6e6689 bd6fcbc1 bd69d03c 3cd93da0 bd4c8882 3d69a0f1 b9d88d2c 3c0d3931 bd08b9b8 bc1ad4c1 bc26711b bd37ae6f bd20ac65 3c4ac718 bcf3aa5a bcb498cf 3d28f559 bc710a07 3d5556a7 bca1e3c0 3d5eae14 3c4b9079 3c243578 bd44c58b bc86cd2f bd0a3bf4 bc88b7f9 3c8611ba 3d50af02 3c7b0813 3cdd0436 3d0f9725 bb7daa36 3d1a70c9 bbd3f9ac 3d33bb8b 3c0c34a7 3d0d083f 3c3a781a 3cfce9f0 bca96e85 bc267214 bd439068 bd40531e 3d65db27 3b8dbbd4 bd012639 3cbfe6ff 3ab6fb78 bc1c6069 bd5ac135 bc61f5df bc4520b5 bd60805a 3cc3064a bbd4a927 3c8d552b bc91f4f0 3b657210 3c715c33 3d0b509a bd00950b bc9c140e 3c92a0f8 bb22f6b6 bcb0545b bc57e87a 3d662376 3cafd899 3d4d2cdb bd2115d9 3d3a69cc 3cc7cf31 bd6cfdf6 3d5b8ad7 3b86f2e9 3cbf307d 3d61b244 3ba3f713 3cdc4ebf 3d268778 3c0af7dc 3d391342 3d5f887d bd8e32bf bbecb677 3ca8bb58 3d201b9b 3da09cde 3d3e6394 bc687774 3d88ba8e 3d0172ab 3bd8f1b5 bba21b5c 3d19594c bd70d3ac bcc602ca bcb8e96d bc4d842c bbc4618f 3d21c815 bd0db8c0 bd4e1c14 3cd25870 3ca2aef1 bc83c681 3c6eb02e 3c76862a 3a416ede bd065931 3c21b682 3c2f284b 3c8f2b29 3da01c78 3d6babf7 bd48e648 bd50336a 3ae04c89 bc57428a bc7549c3 bcc7e78b 3c282c0d bd6a819c 3d5411a6 bd4f2033 3ca3ff20 3b35434b 3cfb0e2d bd299a4f 3c525d71 3c409ccf 3cde3462 bcd8f6dc 3d86e183 bd2f33a6 bb477b0d bcc13c85 3c16554d 3b9773cf 3c9ee1bf bd3a45ed 3d2f262e 3c3daf3b 3c600812 3b432b90 3c80e26c 3d5ff66d bc365c32 bcbffb4e 3d84c84f 3d906250 3d4fccfa bd1e69b3 3c68ee4e 3d53f2e1 3d63188b bd9fa0ff 3d6a7464 bccdfff9 bcd76e3e bcae70f0 3c27d5b9 3c5ac56d bd232c2e bcf715c6 3d6f503b 3d18a8ff 3d07eabd 3c310d64 3d31b02c 3cc46a9b bc9ab1ed 3c5afc87 3c82ba87 3cc078c5 3ce1930f 3ca2caa6 bcfc9d98 bb96233b 3de410ed 3dccf51b bd06f54c 3d41cf21 3d5e059c bc7059c6 3b2c7aff bc957f10 bc125ad2 3d30715b bceefe71 bc49527f bc091965 bdd940a1 3da43dbd 3dcac3ca 3c637050 3d39d751 3d6217a1 3d1f2a62 bd2bfc98 bcb0b70b 3d351e97 3d3fab04 bca6edf4 bc673d91 bd463252 bcb47793 bc1da1ac bd007a0c 3d0d6a05 bd2e4528 3d2199ba bd60b3f7 bcfb1708 3c4795f8 bd46d0c7 b9f768e4 3da87e92 3c1ba2cb bd288a61 3db0bc40 3e2216c0 3daf0370 bdc9a16c bc8de1e3 3da0d80a 3a2d4b32 bbf18af1 bd198e8e 3c4a6680 3c344cec 3d3a2b41 3d31a8de 3d21badd bc560541 3c649919 bbc6bc57 bd05243c bc7b7721 3c154ab6 3d205a1a 3b83a9e9 bd485717 3d1b9368 3d957103 bd94125f bdd83dab 3d60f85b 3dd40d27 3d836359 3c45afe3 bcfcf88c b9384043 bd3a5fca bc996fcb 3b0c7858 3aef7bf7 3d0b5664 3d046138 3ce25ce6 3d718962 3d31f13b 3d68e6b6 3d238db1 3b7235a5 3d711b21 3cbc309b 3ccd54dc bd37e0af bb117e21 bd551412 bcf5a256 bb63fabd bd3d5c86 3c9bfc0b 3cc761b6 3bccc8e6 3cc40658 bc7b9c71 3d495034 3d162629 bd3a56ee bcc978cf 3c37bd81 3cd818eb bd1e7518 bd465ace 3b22e25b bcc48926 3d4e8169 3d323cf9 bd3d2c3b 3c3e0816 3d23bd8e bd58a8c0 bd820735 3ce1f0a1 bcda88ae 3cd6b8fa bd1eda28 3cbf5983 bd2b1c85 3da4b90a 3d559b34 bc4e4565 bd636924 3c47ef06 bd01a1ce bd33fbf5 3c0a2909 bb270c0d 3c8f08ed bd2120cc 3d923b0b 3d8b33f7 3d988553 bc9fe5f2 3cd166cf 3d396878 bd29924a 3d2de1bb bcbe0439 3d5d74fd 3d3f2f38 3d2f2b9d 3d7e6b35 bbcf1d6a bd5a2e3a 3d90c9fa 3d99b260 3d1ef0e5 3c0a826a 3dbc2186 3df4a135 3d21045a 3c60fe3c bdcaa9aa 3c5ba8d1 3dc3c1c5 3cac4f3e bd95ab48 bc751736 3d82e22d 3d293ca0 bcba0546 bd76a62c 3d95b467 3d3d9a8c 3a024d01 bab0020c 3de3b6d1 3daabc5c bc0924a9 bc64e5d1 bc91588a 3d281abb 3d634eb1 3d2710ce bbd51c6f bc7736a8 bc7a1452 bcfacd22 3d43c6a2 bd7affad bd5d1cb1 3d15e8c3 bc8f1c40 bd5675b8 bc06c46d 3cd23378 bd5ad8d0 3d0c0862 3c0808d4 3d6a91ce 3d8511fd 3cfdd504 bd054782 3d408621 bd3dcd0c bae053a0 3d3a9013 3c902ec0 3d1f63bd bd3717a7 3bb1fa18 3d349584 3d524970 ba4a0dc6 3d4b3d2a bc8a8e31 bd0abf14 bd26cf66 3d0bb4f3 bca826ef 3c7372d9 3bb7cf26 3c1de5ca bc8cb998 3c4f56b5 bc000d85 3d25cd3d 3d710ebc ba542ae4 bd63ea91 bcd1fb47 3c2728af bb8683ec bbb8563f bd6675c2 3c84068a bcd64547 3c18566a bd6b831d bcf220ce bc588692 bd084cc0 bcce0cec 3c2217ab bbc39ba4 3bdd2c70 3aefea15 3d69e18b 3c96cfae 3d5e2e3d 3d106b60 3d13a59d 3bacfa76 bc0c53f1 bce37dc2 bd235eb9 bc01eee3 bc4125bb 3d629a2d bccd68d1 3d8db1af bcbef76d 3c5aa70d 3cdc5141 bd41fcd7 bd42874e 3d1972f6 3c22aa60 bc419a37 3d0ddfef bc1611fc 3bc46688 bcd56c2a 3d6d6436 bd5ed58a bd23dd2f 3b9c9d28 3d8627c6 3cb68403 bcb6419e bd42c82d b9839399 3d21ede4 3cb14b82 bc7062c0 3d428fa6 bc7cd0a2 bd3b393a bb8c6bb1 3d7c898f 3d2f6c35 3db89535 3d8be69e 3daca45a bcda8e68 3c77d5b1 bcc5482e bcb856af bd1fee25 3c23bee6 3a61400c bd57c3ea bd0b8ba0 3d58be3e bc19d766 3da19997 3df54238 3d75d63c 3d868c4a 3dc6473c 3d973e89 bd2a302d bd9c3f2b 3d39a0cd bced7ca1 39bcf5a6 3d2d1b46 3b5ea72c 3d585ec8 bd070ff2 bd09ef32 bcd09c41 bcb33b19 3d200947 bc7a936a 3bab577e 3c5761ec bd15da8d 3c418a8d bd2ad9a6 3b6c2ff2 bc94faae ba2d0900 3d6178d2 3d78f29c 3dac9f2a 3d217b77 bc67b88a bdaf543f bd11df03 bd44e816 bd4c28be bd1bf0df 3d47def0 bd53fae8 3d63dcbc bcf5cbda bd411335 bd415448 bd207575 bd4f11f0 3c2f48bb 3cdb26cd 3d8678cb bc845e11 bcc6f474 3d87f105 bd40d82d 3bfe3e34 3d118c97 3ce75f76 3db27c4a 3dd5e7d7 3cd66b1a 3d717394 bd239849 bd774abb 3d262ffe bd177958 3cf965f8 bcdeae6f bd32b6b7 bd1652db bcdc9d2b 3c104ea3 bd2d9116 bc7e65fb 3d7f1822 3d26faa2 3ce6a4ac bbd8409b bcab98f5 3d26db96 3cfb5115 3ba93b88 bd878b48 3c3468b2 3d4945c8 3ce6f39c bd11209a 3c5245a4 3d828ffc 3d2845d4 3d4ab50a bd5bce68 3a2ea16c bcd881fb 3d504264 bca2ee85 bca659d5 bcf5b3d2 bd0ffc87 bbb7fd45 bcefa1e6 bcc68f00 bd980fb9 bd58ac3d 3bcc1417 3d2aced1 bd7303f4 3d68f296 bc936ad0 bc688866 3d917583 3d496e6c 3c2814dd 3cd6be55 3d7390cf bd40a9f5 bd5fb767 3ce86830 bd7e8344 bbd9b2ed bc5b4949 3b17eb88 3c66ed1a 3d1089c6 39829b75 3d82e27b 3d8ad020 3cd92ae8 bb95b9a1 3d08963d bd0cc17a bd217543 3d00a649 3c948a9f 3cf5ad66 bbc03424 bd532679 3d31088e 3d00afd3 3d7cdf55 3c774f13 3dd7f80a 3da082ab 3c817cc1 bb9bad69 3bd71c47 bc815e43 3d9dfa0f 3ca37e8d 3d69dbef 3daadc69 bd11a378 bd61839d bd5af6b3 bd917886 bd83ece1 3c7aae84 bb246e8b 3d2b5537 3d0233e1 3cdcad5d bc0c7c9a 3cb48be5 bd3dcf1c bc3e6be6 3bc81732 3d3485a9 bd4bebdb 3d561fb6 3c0c58d3 bd272914 bc01d9e0 3d3129ea 3d0a82db bcb1d47c 3d26e66b 3d243831 bc24baf3 3b2a46f1 3cc3d254 3cb12dd4 3cd4c4c6 bd9314a6 bc2f9eb3 bd76e88a 3a7215e4 3d2a61e5 bd82d19c 3c21a763 3d079380 bc8fe2e2 3d462ae8 bc0340a4 3c4faece 3d29f8e2 bd02b4fa 3d3e5779 bd5140ce bd6eea41 bbe7487a 3d458fbd bccb71d0 3d1010ce bd520f3b bc5345a4 bcb39df6 3d1001d2 3cead42a bc6d22f9 bd5765c6 3d693b70 bd0dce26 3d4b229e 3da1118d 3d249004 bd340eba 3c8d6f8f 3d2e998c 3ca82409 bd682fa6 3cb42269 3d686de1 3d486a85 bd43d771 bd4c4537 3b6ac3f4 bcef8648 bc22a1fb bc7df923 bc685c2b bcb049d7 bd1e17c2 3cc3117d bc7a2900 bd0d2f90 bafc74b8 3d41590f 3d3f2f68 bca05c80 bcee7f78 bc96f0b1 3a4d8b0a bd07be38 3b5fa700 3cae42dc bd0e50ba 3c717ebb 3b39a681 3d0d399c 3cc5da7a bc9d7339 3d0aa57e 3cc72533 3ad32022 bd1c39c6 3d03e6d5 3c393deb bd0a7882 3cf8463c bbc68978 bd1737d0 3d1d31b4 3d4d66fd 3c0d5580 b8c674a9 bbdb0207 bcb2473a 3d4e92a2 3d63d744 3d1a2a4c 3bf6f7b7 3cc9a551 bcb958fb 3cac1147 bc7d2329 bd2f9166 bca74a74 ba9d6cb8 3b8988d3 3bd71b4f bd028bee b8ee2d19 3c81a421 3d69c4c2 3d04ddc5 3cfd5260 3d67211d 3d5d4a9d bd528824 3c694f96 bdb57a3e 3ca0ef8d 3c5988e6 bd8e114a 3de1937f bd99e34b 3c996c66 3de7a3c5 bd306e1a bd1a5c44 bc815c64 3cfb9176 bd15010b 3c2662ef bb1f4312 bd6e1185 3d0e60fe bc912f75 bd1d935e 3a63b163 3d43c1f8 bd710a92 bb836acb bd59003e bd0790c3 3d667ec5 bccaa0eb bd734e7a bd32272a bda493dd bd4de5cf 3dd568ab 3c3b7024 3d887a1c 3cd289b3 bbb9e553 3d5b41ad bd378c02 bd69c2bf 3cb985a7 3cd85c08 3d202c75 bc88ffa1 3d695027 3c9de2ac bd64412b 3d2a6001 bd116599 3c987330 3d03044f 3cf58e78 bd602d44 bcba70cf bd53f70a bda3fc5f 3cad342a bd1d29a4 bdb3f265 3d362e6e bd075df5 3cdf7124 3d5f7684 bb0b049b 3d323ae6 bcd0db09 3d068d10 3cbd2cf6 3d46104e 3c81a076 3d83d152 388f48bb bd47a956 3d0655e6 3d462fa3 3d00d76e bcef237d 3d26b6c0 bd46f193 3cba95a1 bd50f0e5 bd438e7d bcf3c23b bd329744 bcff0f1c 3c93b8ba 3c89c712 bd3cb56c 3d1ca3ba 3d790e0b bd2dd511 3c7c9f3a bb89864a bc413d0d 3d123eb7 bd4454ed bc085c94 3cc308b1 bd302c38 3b63da27 3d164cf7 3d28cc4e 3b507a85 bd22444a bd688300 bcb894f7 3d80483a bd6d73e4 3cc04f63 bd903346 bc82391a bd01e09c bd4b6b06 bd04f307 bd2c4a09 3c793180 bd250310 3cc1492e bd17e0c5 bce709e7 bcd2ce15 bd782054 bd203803 bd586b3a 3cac15c7 3cf96ab7 bd59d5ac 3c615f24 3d07a0a1 3c1832d2 bd1d2c1b bd74df1e 3d27fd5e bd2f148a 3d0fcc26 3b97391b bdd93b82 bc8d4cb6 3c0a38f3 bd8d89c6 3d393e1d 3c3e4392 3cab700a 3df87ecb bd404310 bd9d3c49 39408140 bcfc643b bd8594cf bc0c186f bd9dcc14 bd389f18 b99d5970 bc985a5b 3b0bf77c bd7eed29 3ce700e0 bbd672ac 3da038b7 bd53fe65 3c356c9d 3daa3723 bccdfdf3 3d606064 3d376943 3ca598b1 bcc96817 bcce1201 3d067f4b bc4d39b6 bc8cef25 bc38f997 3d6ea072 3d872438 3c6b7fc6 3d49c491 bbbf0783 bc7ef49e 3ca04527 3d582a5b bcc5c473 bca7cc43 bcf0d799 bcb0be2d 3afd706d bcef92a9 bd208748 bc70a14e bd21febd 3c60ee2a 3c409998 3c5f1d0f bd33bf5c bca8de99 3d60255c bce21eec bd1d1aaf bd6f90f6 3d87f54a bbc6f57f 3d1197fc bd36790c 3cef7d81 3d2d055a bce30e58 bc9cb3dd 3d3732ee 3d33ffaa bc4f8cda bcff6816 bd9cc7bc 3d0620be 3c11105e bc0ec473 bcc13a0e 3cbab35f 3d0eb4df 3cbc7d56 bc9638c9 3ccea4d3 3d0f8bb9 bcb78403 3ad715b3 bd6a226c 3d21334a bb0964b6 3ca832c1 bc3497b5 3d477ad4 3d085973 bcc413e2 3d61ffa6 bd38107c 3ccfba21 3d3e51de bcd9a489 3c88001a bd235972 bb6baa56 bcc36233 3d23903c bcf2efbc 3d443d80 bc9c5765 bd27d3b8 3acac24b 3d3d8016 bd6c50ae 3ab63f32 bc538794 3c56edad bd41eb93 bd187c66 3d1178c1 3c56696b bc1dc49c 3d40e4a3 3cad2227 3c0da4ac baae19b4 3c86f39d bd2aca2a bb9c9ffa bd2d4559 3c8b9129 3d3c1854 bca33032 bce1072c bcf7f000 baad68e6 bc5d4d91 3d438b14 bd40960c bd2897d2 3c5ba8c4 3d9d3815 3c0a1ee0 3d09f6c4 bc87c9f3 3c740534 bd196411 bc01bb86 bd655f93 bcfd6405 3d440e59 bd2f1e88 bd71664c 3d53e7f0 3a5ba23f 3dbd8f27 bd341d48 bd427587 3d8d8e1d 3a8409b2 bdb2644f 3d077745 3c643b89 bcab836a bd647c89 bc653147 bc5fd58c 3ca6ead5 3d536cfb bc08fde7 3d173dcf bd487b39 3c938f34 3cf53abd 3d261422 3c8d6ea2 3c496943 3d050f77 3c097fd9 3d77b633 3d01a7c6 3d89a1a2 3dee7cc9 3d787678 bd950731 3a7d5abd 3d3deafe be15417f bd6a5638 bca9920c 3d21f093 bc47222e 3c598bdc 3cd2e585 bad7aa35 3d511865 bccdfcdf 3c23f280 bcdbe303 bc96def7 3d178358 3d85e112 3c9e8265 bd3c3f93 bd40d276 bd34dbd2 bd622941 bd5f8249 bc870251 3def3083 3d367258 bde93988 bcda7dac 3dda1c4f be0d9383 bd405a7f 3d10960f 3d84209c 3d72696a 3cb1a94e 3cfd10a8 3d3e3df9 3d58184f 3d0fe60c 3d3e59e0 bce8b459 bd1b95d7 3c1e5c57 bcdf2f97 3cb6d0ee bb9c451a bd45d739 bc4d80c2 bd4fbe1e bcb48489 bb3ed2bd 3d552771 3c9e6053 bd21c2fc bcb5a11d 3d6150e9 bd948b61 bd9d4947 bd009cc7 bceb91ad 3c29660f bbe3559a 3c2388e4 3c909533 3ce5f8ea bc152d34 3d5cf26f bc607ed1 3d15bedb bd39b53f bd1ac1f7 3bed0aff bce8b4a9 3d0989d9 3d23ad16 bc98eb68 3c103cec bcd6ef1a 3ca73af6 3d36636b bc33ec9e bd67df54 bc13b054 bd7f9ec5 3c862d41 bcbf865b 3d46cae1 bcd40fc9 3cb265aa bc968e11 bc72a680 3d622f1b bb84f6f1 3cb487d3 bd3c89ee bc374cfb bc977e60 bd0fb6d3 3d4a02b7 3d73af98 3d03bc5e bce7178c bc2d6f44 bb484e8d 3cfc332d 3d9f5753 bb978e5e bb4f824e 3dcd16cc 3dd65bff be0e3bca bd0d359c 3dbbdc91 bd22586f 3d5c610c 3d485af9 bc6e5441 3d2044f6 3dc680ae bdc00a36 bd8e89cc 3ccd37a8 3da3bf9a 3d954306 bd0c884e 3cbc730c 3c6bde8d 3c563654 bd9471c7 3d18adda 3d19885b 3aa0186a 3d04bc4a 3b1c6ee2 3cd9a4d5 3d2d63ba 3c730b2e bd35bc4b bcc334a7 bceaa189 bd53c19d 3d15c825 bd751980 3c7afc60 3d1255cc bd05e53b 3c54efb4 3a227b21 bd836779 bc99f712 3dce433d 3dba5089 3d0f44b1 3c862c8b 3d684a09 3bb4e71a bda9847d bdc9450a bd4485af 3d49c7b3 3c43c271 3c41c99e 3c6fe84c 3d3ab79d 3d3154dd bc1f8098 bcbdec41 3d049ffd bcc1dcba bbd8fad6 bcfb140e bc018277 3c117a26 bd984f35 bda25bfd bda7f2a3 3d5412e4 3c7fa36b bc7bdaff 3b71d368 bd501a97 3ad10f27 bdaa6b36 3c2704ae bc50d7d7 bcc4aa2a bd69b08c 3d1430cf bc25fc3a 3d6269c0 bc35bd45 bd6b9246 3d30a267 3d6a8f22 3cfcea4d bd17ce10 3d51c94d bce3fa29 3d063d29 bca0b910 3c0c031d bcf2f4ca bce2e132 bcd497a6 bce1f38c 3d3f1af3 bbcd87d4 bbb23fbc bcb49347 bccd7d66 bc984983 bd5342dd 3d04d314 3ca0abba 3d356207 3c16221f 3d02299a bd6536e7 3d4ec475 3ca30c18 3d843b08 bc554efd 3c56ad80 bd1e79a3 bb19348a 3d673b81 bc57fc6d bd934ee0 bd95eba7 bd6e9109 bd0c750c bc05b129 bcdeb78a bd195d70 3d4aa699 bce12bff 3bc7933a bc80959a 3d73af3d bc6c40df bd62ba69 bd095eb5 3d4d7f41 3db04d74 3e079683 39e8d8b3 3d3c7d20 bbc1590a 3d10a4a9 bb7cbdb7 bd0b49a9 3cae51fc bd0c6b60 3d39c8ba bd04cab7 bd78296b 3b21aeb8 3d56ee75 3da73c8f 3db5358f 3d78baf0 3d37c247 3d7a3864 bd9b4288 be28c734 bcec62b7 bd5f9630 3d59f72b bd6b240a 3ca43587 3d0d72e9 bc7fd47f 3cc7a626 3d1c1d5a bbde1016 bcc9667f bd11940d bd76e4c0 bc897ed0 bc0ee174 3b94b4b1 3aee16b9 3998b5a2 3c8fc120 3db57d45 3e2aa71b 3e12e42a 3d07c139 bc8b7835 3d891c17 bd9d6084 be41bba4 bd9f7eca 3d24cc9a 3be6a87e 3d48a580 bcb4fd64 bd1aa444 ba858ee9 3cc83cd9 3ca1063a 3ca34c4f 3d3e1d26 bcd73cee 3d19ee67 bb364b58 bc750f06 3d427490 3d108a99 bd9461dd bd67747f 3dbdc1d4 3e0e216b 3df71d1a bcbee50a 3d8a8aa5 bc32fee5 bd4181b6 bdec48df bdcb8bc7 3d67d2ab bcb3e80e 3cc0127a 3d0116d8 3d2cd2e4 3c82987b bd4440c5 3d83bd33 3c65caca 3d814336 3d9b87c7 3dcb84d1 ba7574ae bd1f66fd bd65934e 3d1bf8fa bd41c6ba 3cb786c9 3cacb74e 3c8e8caf 3d1ad223 3bd9a252 3c9eb5db bc5e6f9d bbc6e508 bc81e136 bd2e9483 bc8047b6 3d419b74 3d2d43c7 3c09fd61 bd3f3394 bcd8581c 3d679374 3d0ba1d6 bd03b73b bd8fdb13 bc01345e 3c9419e9 bd3ac681 3aeb7c9c bd4b8d2b bcabdf19 3c374983 bcbc37ab 3c3c2cdb 3d7c6a67 3d1f110b 3cf7b880 3ca041ce bd2eeb35 bdb79810 bd9c1c37 3be91624 3d048b7f bcf19064 3d01a6e3 3d2c47d8 3c067f94 3b9b6dc0 bcaafd42 3cd74838 3d670eaf 3c9d8ca6 bc3c83cb bd504a3f 3ce9d316 3d67e0c7 3cdbd788 bbfc8fd3 bcf37d79 3d5df118 3b191f1a 3d32eb4d 3d785fea bb4536dd 3d4429b7 3e126370 bdf14428 be0e8245 bdd405c3 bc76de1a 3d4b530f 3d913107 bc5352a2 3c21f916 3bf6eff8 bd8fa444 be08bb95 bddf4b0a 3c3acd9a bcc09686 bbcec514 3de6595d 3df91c75 3e0d2c09 bcd51072 bdadebf5 bc05e6a0 3d171da6 bd53775b bd061534 3ccd5bb6 bc7daffb bcfa7c88 3d3bff0e bcc3eace bce3a2c3 3d354f63 3d4b3bbe 3d320c9a 3d5db876 3c8d2389 3d45c991 3d5e0440 3d66c12f bd0afb63 bd006dfe 3c63a038 3d86afb9 bae63c17 3c219b7c 3d965750 3c5f55bf 3d1603b2 3c5bb8b6 3d50c140 bb4ba796 3c18dfe2 bc409865 bcd9efe7 398cfa02 3cb73816 bd64c188 bd6c76d7 3cd43c44 3bc3abb6 3d0f09b8 bd55977f bd890688 3d90d78d 3c811427 bcdea17e bc8208e7 bd540764 bd52fc0f 3d93c018 3cc2dfe1 bd2d9617 ba3763a4 bd16215d 3c14321e 3cbbbe24 3ccfdd21 3a6587a2 bb0edd55 bbae6631 bca3bb3a 3a8618db 3d6224df bd2d47a1 3c481d08 bcad44f9 3caac206 3d5b078e bd15177b 3d548f94 bc881adf bcf6ccb4 3d38a969 bc0750cf bd5a0e5b 3d66aadf bd527d1a bcd6f91b bd1bc307 bd5b8ec3 3d635b3d 3d6a0551 bd6d66ae bca35fbe bd2ef3b4 3c539c15 bd818471 bd2554d6 bcbad1a3 3cb64d16 bc652942 3bdec3e1 3cf81328 bd896f37 bcdf2ef4 bca4f78c bccd35c3 3bc5a300 bd183376 bb04e6be bc9e954f 3d40ba0c 3d58d27e 3c199354 3d366bd3 bced1ac9 bc723f19 3c97be0c 3d5d93bd bd36f7b4 3d1f39c7 bc37e5bf 3d08536a bc1f1c34 3d1ed70d bca85a22 bd0ddb5e bcf68053 3bfed5d9 3d34806f 3d4b8420 3c88e395 3d6867ce 3cde607c bd15e327 bc69f80d bcc060d9 3d56ad53 bb22e512 3d076c16 3c046ed5 bdc8a6bf bcf24704 3dae6fb6 3c843450 3d695179 3d32d326 bd1784a3 bd380873 bd27295e 3d5bad69 bbf93588 bcbee563 3b179a25 bb83f79e 3d1caff0 bd192bf6 bd2764c9 3ca50ded 3d11061e 3d69ea9e bc058b6c 3ca23c0e bcf0b046 bd313d55 3c240ea8 bd6bb103 3dcc44e3 bde999d0 bd3c445e 3dcb3fe5 bb349d6f bd13c9e8 3cfadd65 3d2bd4e3 3c0b9c1a 3d028db6 3d244f5c 3d66660d bd5a1487 bd63c62a bd0b57f8 bd0c5c4d 3c083dd6 3cb59945 bd01741d 3d2c38b3 bd099580 3d88cb68 bd69fc71 bb92f9a2 3c5646e2 bd2a2b5e bd561748 3dde585d 3a713e74 bc6f69f9 3d8a75a5 bda44d21 3d16ae44 3cef6df7 bbe09ed5 3d645838 bc41152b 3c90dac4 bcf4849a bb32f5c5 bba89981 3ceca513 bd8a0c25 3d4af03c bd85b72d bc2f0178 bc7258c8 3ce845cc bc779079 bd51fd34 3ca691a8 bc4f4250 3b9586ef bc9b96d1 bbcd25d9 3d333b9e bc509d5a 3d5621f8 bd94674d 3d4232a9 3d934bc2 bc2fd27e bca91953 bbe351b7 3d22c3c9 bc527f5f bd3d6bd6 bd0eca1b bd13ef4f 3d3853f9 3d80a220 bc226dc9 3ceff381 bcff3cfb 3cca385a 3b7256c7 3ca15fdf bd1e64cf bd3f826c 3b9a25cf bd0e1122 bd381900 3c6eeebe bc3b4351 3d4b2316 bd245320 bd11b71e 3cff5407 3cf74f0b bd0263c5 3ce95701 bd1d39df bd053839 bcf336f5 3d23cc1a bd7ebc61 3c244a9c bca14f51 bc8f143c 3d11b528 3c975c41 bbfc2dc5 3cb54151 bd6b28b5 bcd72e0b bd8313ff bda1019c 3d1459ad 3d7d3a1e bdc07ab0 bcaf5f52 bc08eed5 bd10ffce bc905db4 3d88866a bd02b3c7 bce702c6 3dc22bcb bcd3c854 3d1fe532 3dae90ff bd8d1d26 3d57b5f0 3d47960a 3bed9ab3 3d66e02d 3d433669 bd40a420 bc32a2a7 3d344933 bc935c1e bd10d89d 3cfd3acb bcce4dbc bb7d1a74 bd1086de 3d072cdf b9d04b5a 3d2c0c91 3b334a43 bd70b4aa bc769a8b 3d2da4ea bbb9d6a2 3d4cb514 3d5d1979 bd1a6d35 bcfb2fb3 3cbd1dd8 bbbea2c5 bc1854c8 3d48cce8 3dac4bb4 3d4371bd 3b65e78f 3d93b0f4 3b53cdea bd53430d 3cb69603 bddc4a6a 3c89739f 3c06ea0d 3d35d5f4 bca3d3f8 bd721982 bca51fac 3c791acd 3d10cdcb bd5043ec 3d6d2d9b 3bd8fb27 bca7b349 bcb3f3d6 3d4e0798 bd44d509 3b685bc2 3c4ec388 bd9bf721 3baaa3c5 3cda48a8 bcc2d0c8 3d91671c bd5ebd28 bba5b516 bd89acf4 bd8a6139 3ccf38bd bd6705ef 3d4c924c bbc3a9ad bd4437aa bd4975b4 3c4a82a7 3cdb420c 3cb5b94e 3cfb480d bcb73fb8 bd67d83e 3beaf510 3ad410ca bbd7be6e 3cb44b3c 3ce509df bd187133 bd1d4556 3cd13f00 bd293d06 3d2b3fb7 3cb0f7a7 bd3fa343 bcabcc15 3b91c0db bd5e6fb5 3d362171 3d5d406d bccb456f ba616a02 bc016699 ba95f36f 3cc7b779 bd47266a 3b6c3864 bbe45fb9 3d6e6660 bd062a44 3d87eda8 3d9ab43f 3d69b172 bb20505f bbd83128 3c65cf0c bd169d2c 3ceebf90 3abb7fa0 3c3fa460 bce44d42 bcaf3d74 3d1ebe44 bcbdc5d0 bd49553a 3c8c04b6 bcfe03d1 3d1813f4 3c090c78 3d6c2960 3dc87d72 3d1f5986 bc5af63e bc5d68b6 3d680ce3 3cfd626c bd577fe6 3d29c120 3d7b9688 3bf86283 3d47c8f5 3cac05c6 3c0c94a9 bd6fbd26 3d72c65d 3dded333 3dc87980 3d7de330 3ab9970c 3d3d67ee bd0bde6f bd3a911d bd943c5f bd500841 3d1ef646 bccdd6d6 bd39c081 bcd19a54 bd60261d 3beab6c1 3c27ae64 3be2cb11 bc18266c bd4de017 bd0af9e5 baac48af 3d429db8 3d317f35 3d1628fc bc825764 bcace347 3debb764 3e12637c 3db553be 3d608038 3c428a6d bd373868 bc79f2e8 bd8d95f7 bdb4af11 bd70dd38 3ccb8d59 bce213d8 3d424dda 3d2fc2fb bb1b87f7 3ca0b527 3cea2c3d bbb2fcc6 3d3e8423 bc6d12f7 bcf26ba9 3d9198cb bc105844 bbb21cf2 b9cb7d59 3b55d650 bcb17ffb 3d64479d 3e05c585 3e023b95 3d43979d bd0eb0ef bc324d11 3c93b323 bdb49a17 bd56c550 bd4fc95a bda29343 bd977761 bd51b855 3bf3c0ba bd4068fa 3ca51594 3d5a2e0c bd237871 bc66bdc8 3d7da075 bcd10506 3b774e8d bd8e1670 bd9dc195 bc474c81 bcdb6170 3d47d494 3d768aeb 3c3e22c5 3ccb7098 bcee6651 3d6ae178 3d49fde4 3d06e1f4 bd42d42a bcff0ae5 bcc67cf5 3c6d5cbe bbdca0aa 3c3e1ea1 bcc73fab bd5316a6 3c1dc5bf 3d63103d bb853a06 bd31305f bd0d58cd bc547396 bd246973 bd554a99 bceabfb6 3c2c0f5b 3d4b23a0 bbce5bdb 3d1b95fd 3d95e884 3b92c4bb 3cf34c8d bd798404 bc5410e0 3c999d9c bdab8e98 bd8f0608 3c025271 3ce5013b 3ceb18a9 bcca2e04 3d44edd0 3d50dc2b bc75b48d 3c9220b9 3ae939d6 3ba1e316 3bb132bb 3c21895c bd3e9c0b 3cafd89a 3d981493 bb9c76af 3cc903ef bc869f14 3db6e828 3db930b0 3dab60a7 3e08e02c 3d9cde59 3d596031 bcb67c5a bd2e87e9 bda0a715 3d8b6bd3 3dc4fd37 3d8d162f 3cecd653 3dc088c7 3cdea01d 3d5df8a9 bd429e1f bdb22087 3d6e21f4 3d865e1b 3d13c5bd 3d8dd7ce 3d2efd3e 3c66547a bce592ba bd86cc3f bbbbe51d 3c465989 3cbcc817 bcd1bbb1 bbefc198 3d23aa26 3d40dde9 3cced527 bd34b8b3 3c3b1aa4 bd792154 bd33d46a bd5f1dee 3d5e8816 3d401e73 bcc53af2 bd0849a7 bd509cb7 3ab0ea06 bd474433 bd9046c3 3c2d3e74 3d66f8ae 3d64e63a bbdf8c2e 3d261b99 3c998814 3daabda6 3d6159b9 3cc5bf1a 3c9a561c 3cf00e0f bccad668 bd0b1505 bccaa128 bcbec790 bd1cb416 bd53c637 bc1022d1 3c4c787a bd2a115e bc9ac3f9 bcec9775 398ee1a2 3c8b0b1d 3ce59280 3b971c62 bd26376c bd19c56e bbefab25 bd3d1c4c bd78f80d 3d536e96 3d984032 3c1ead92 3d56bee1 3cfec729 3a3119cd 3c5ca9bb bc8ba4fa bb6d6798 3b495942 bd5ddfd0 3c4e12ff bc77e9fb 3cf2d5d4 3d3352f2 3d590286 3cd2b7d6 bd665bd3 bcf651b4 bc84032f 3c8e3132 bccd8688 bc0643f7 bd393253 bd5fece0 3cdcfecd 3d2222fc 3d490373 3c85bf5f 3d7031a5 3c0fece6 bd03188a 3d4411a8 3c7b6cc3 3d13ab4c 3d953353 3bf647f7 bc794e7a 3b987bf5 bcd33bed 3d075a4f bd99db2b 3d2cfacf 3d371c3f bd80e6d2 3d8be753 bc35c916 3d200ec0 bc8209cb 3cd9780a 3d011093 3d61617a 3c75a265 bbd21abc bcff05ed bd6b20ba 3d03a07e bd7e2ea3 bd3e30a3 bc673097 3bf58c85 bd995055 3cfc14c9 bba7cfb1 baf27393 bc95f471 3c908697 bd6bf14b bc9a46fd bbd5e0cb 3cd64ee1 bcb61726 3ca284e5 bcde129a bd25239f bd2de09a bddea46d bd8d9835 3cfc07be bd1b8bc9 bd004ab0 3db56033 3dc9a38d 3db9bbc1 bd60420d 3cb16560 bd45c040 bd4ebc0c bd694eae 3d3a8436 3d1cb36c 3cea1639 3d139acf bd00098d bd1bf2be 3ca17762 3c0df8d7 bcd92e5b bd731d72 bc7c64e4 bc555422 bc8997e8 be01a1c4 be033ed0 bdfdee70 3dc2e21b 3d064136 bd1da77a 3d26bf09 3dd199f5 3dd6d3c8 3d605672 bc1c4af6 3d250ea0 bcff3140 bd20662f bae5b603 3ceae656 3b5a186f bca9ed2e 3cecdda3 bd966395 bd8d4512 3d687eea bd60e1ac bc72ef65 bc2e2a1f 3c0a3e4f 3d8c253a bde92217 bdc50dc2 bd3bd052 3d618dce bb8b1093 bbde0107 3d0613b3 3db0cfeb 3d796b2a bd62fd10 3ca32229 bc56e81e bd19a81e 3d07b288 3c11d3fa 3cae653e 3c427525 3d0a855f 3d064ee5 3d838fb2 3d16bba7 3d86aa65 3dbb1b8a bb9f6277 3c2e20a4 3c74814b bd1d01f2 bda0dd77 bdaa6260 bcd63a69 bc00a262 bd8ac97a bd80a71f 3d696417 bbc1c943 3d015942 bd69f49d 3d030c62 bcdb396f 3d5ea0c1 3d5dba66 bca4d6ae bcb1b24a 3c2d0bb9 3cdc3493 3d592282 3d0c9c61 3cdd66d7 3caddad7 3c556026 bd1faf95 bd0fdea6 bda3aea0 bd9bc647 bd054776 bd30a4f2 bcc6c7a7 bc54851d 3d21ee17 bcb7ab29 3b7d611b 3d8d083f 3d35e356 3cadc124 3d047c59 3acd3d65 3ca443a9 bd6d254f 3ca5a831 3d08cfab 3d130515 bd171f02 3d5fa0b6 3ca57758 3d7c292c 3c06a256 3d5da663 3be59258 ba0b36d2 3d87911a 3d7a59e5 bd269177 bd9c0023 be0e8122 3d3cd5b1 3a1fd4e5 bd026ab0 3dde1e25 3dabfbfb 3dbd9dc9 bc2ffc44 bd994903 bd81106c 3d0961a3 bbeb6ba8 3cefea48 3d88d8a9 3dd6acb1 3d3e830f bc96e161 bd1ae823 bd16a27f bd8c8137 3c39f672 bcf4d91b 3da4cae1 3da3319f 3d5f414b 3d4ecb65 bd541277 3d064d7d bcbdf862 3d166623 bcf0e5bd 3cf154a6 3d535c6d bd5673f5 3cdae73f bd07d628 3c308e88 bc73dde5 bd3eb8ca 3d1ed7f9 bc93690e bd1f10e7 bcc620f4 bd80e3c9 3c8ed0a9 bc6ecd3e 3cfd3fda bc718a1d 3d958a99 3d6bd37f 3d499f31 bd426315 3d17ab12 bb8abc3b 3d4fa9ed 3b51f96a bafd28e8 3cd48c7f bc0388cf 3d4ab7e4 bb9f4f1e bd4ee915 3d53b1cf 3d5fd7f7 3c68f241 3d02c6cc bd43a1fa 3bf4972d bd3496e7 bd5b8b07 3ce7db0b 3c94507f bd4972dd bd220f4a 3bb1beb2 bca7dac2 bd08c7b4 bb4e0899 3cad2ede 3c93fee6 bcf66892 3d1e00dc 3d3d88e9 3d0b5bda 3d350464 bb69ae6a 3d2312bf 39e36f2c 3d450dc5 3d5d8929 3cb3816b 3d1e81f2 3d42d28d 3c453a3a bc611b1c 3ce72de8 bc073ac3 3d280631 bcbf843c bd38cf13 bd27d7ab bcfb336d bc375fcc 3d5b27eb bd28ef21 3d16214f bba0dd64 3cc128ad 3cb5f9e8 3d1a09d3 bd392564 bd609cbb 3b6b5f01 3d255215 ba4cb5a0 3d4bf6f2 bc7cd4d5 3cd713d3 3b7ef00e 3d0a5775 bd08a035 bc21369c bb9419bc 3d25bbf1 3c70f389 bd42c4f5 3d13e164 3c1a67ae 3b9f984d bc45f93e bc600fe8 bd427958 bc193eec 3c1f9e5a 3c30b497 bc3a5ad2 3cff6d60 3d817db7 bd1ce4f3 3c6a968a 3d891733 3cef8c5c bcaf4929 3d4d50ca 3cf86358 3aacff5d bd50479d 3badc215 3b1c2154 3aa13c6c bb8df177 3cec7d3f 3cac0e42 3c85e3aa bad84a11 3daeddb6 bd0eee0b bb30df2d 3d0b6a39 bcc9cfee bd1141ae ba1b6d5f bd223e4c bc94e6f3 3c94fbde bc946de6 bd6c8db5 bbe40b71 3d3c19a4 bc8d785d 3c147dd6 3d1aef48 bd147382 3d36b114 3d2e9e8b 3d678ea1 bcf0c7dc 3c79ff4e bd5f89d5 bc1ad43d 3d7af055 3d925f16 3c8453c2 3d647d97 bd1794fd bceda689 bd588b9c bd5465d5 bc360db2 3cb00a5c bd5fc6ef bd49045d 3b17dc58 3d4cc272 bd364ece bcfd8c31 3cebeb55 bd33287a bbd9ede9 3c9a119b bd3a9afc 3d136b0e bced03dd 3d6b6976 bbde3934 bd8cb164 bd61ed84 3c126271 3cd00410 3d7fd0bb bb84cac8 3c111463 bd4b4a51 3cf2a84f 3bade6d6 3d54848d bc85d2f9 bcb1f7e9 bc723e12 3d358ce5 bbd9e7d0 3d1ce701 bd13a01b 3c34d9bc 3d24aff0 3d84117b 3d500a7e bb36eb11 bc23eca0 bcd4b0ef 3c2cb6ee bacd62db bd0e2d6b bbc2b839 3c54b8e1 bc9bf323 3b8feec4 bd118bc1 3d86a8f4 3d8f467c 3cb7b7c8 3d5718fe 3caa0cdb bc1fa855 bd5df5ca bc9970c5 3c95fcef 3b13a49a 3d36fb8e 3c93df3d bd219734 3d1ff8e3 bc072390 3d11c695 3aeaf811 3c8068cc bd24d891 bcaaadad 3c132b13 bd250c90 bd168112 bc7bc7a3 bc84e9e4 3d8d6003 3cd83467 3d4ab03d 3d42db17 3d0a8f63 bd525730 3bb6d073 bc26065a bcfd5a2d 3d38933f bd00456b 3d0b39c7 bd0542d9 3cee183a bc6302ef bcf11bbb bc93615c bd64acf4 3b8e0fd0 3d1dd761 3c44bc09 bbd0c28b 3bf3aed1 bd521c7e 3d233432 3cd3b8a2 3d9b9056 3d9cbd32 3d5efaa1 3d95c62a 3d6799b0 bd397366 bd4d44af bcba7302 bc5a4cb7 3c075d04 3d24ab9b bcfbdfbe 3d6731da bd00fecd bd12eb14 bd8809f4 bd871b41 bc27cc90 3d6f1069 bcffeaf9 3d24b6fa 3da8e1de bcba694f bc34e2e6 3cd8389d 3cee0dd9 3c0cd44e bc7574d4 bd61d80e 3cb8d8e8 3cd2d7cc 3d5e544b bcc8a62c 3d188f61 3d0e88fe 3c8e063e bc87b769 3bbab398 3d621606 3c2e9d6f bd1195a5 3d408d84 3ceb500c bd504732 3cbc7fd6 3cbe18d4 3cf17f55 bd4f91b3 3d1ed784 3d221e9a bd4df16f 3b927fac bc6483b9 bd476a93 3c3cb6a8 bc369f87 bcab4692 3b3bbb1a 3d3102d6 3c44bc06 bd03c579 bcf358af bb50d298 bd19ad32 3cb91784 bcc9d833 3b792234 3c278a2e 3d65e79e 3c984425 bcc86f21 bc8ec47e 3d12191c 3cffc55e 3b26ad89 3d444a16 3cd19ae7 bd0191ef 3d2d35cc bd186306 3d16a6d2 bd692761 bd204718 bc47c114 3c5064e9 3c3d7832 bc252479 bd1ab0da bccfe363 bbbe50fb 3bc00d09 bd450d6e 3ca42952 3d65f82a bcbd4954 bc36ce05 3bcbc153 3d00327c bc0c837f 3d46d960 bce9db90 bd2f7295 3d18473d 3d00ee09 3bf3c899 bcd63851 3c02cab3 3d2c09fa 3d07307b bd3ddf7e bc0fadad 3c6332b7 bd450874 bd486cb9 bc9f0a62 bd1dc84c bcdbddfc bd66dcb7 3cdea57a 3b7e5847 bc5b0689 3d1d3ec6 bd0800fb bd1be842 3c03e8ea 3cf9268d 3d2f387a bcf102e5 bd357a1d 3bcd663a 3ca0d6b8 bd3904ed bd5616d3 bcfcef8f bc8bbf9f bc51cf47 bd65f984 3d36dcda 3d08954c bd0fec06 bd6545f9 bd5497c7 3d446cf1 bd16df85 bbdc7c08 bca4155f bc51eac3 bcea3a20 bc887388 bd4bdb37 bcca5307 bcb48af3 3b682cd9 3a8ee0b1 bd05a927 b9d169b2 bce2797f bd155e5c 3c817ddd bcbd16b0 3cc69ad2 3cabeb94 bbb97993 bc5284b4 3d093b8e bd5a0a7b bccfbc96 3d5e78df 3cda65df 3cdc803f bd5384ee 3d663e5c 3d657210 bbed9867 3c0d8ad5 bd27acd6 3b2a1e5a 3c74aaee bd428a9a 3cc2788f bd5cb27b bd50d99e bc7de98f bd2bcb82 bbd30ccb 3d0b2bde bbe42a7f bd3971f7 3d05086c bc533cd9 3cba3708 bc500f96 3c7f8f24 bd2c6f9e bd063115 bd2a9bb6 3d5ed08a bd6a6aa6 bd17a455 bd284706 bd6b82bd bd0e78d9 3b9ecfee bd2a8a0b bd1f64ac bb8fe7f8 3d2c3710 3d6681d4 bcc49a63 bd1894da bbe97a34 bcb4ef8f bd01a195 bcdad76e bceb5680 3c9a59a8 3d4999b5 3d549ef9 bca2681b bcdfe5e2 bd4cf4bb 3d23b091 3be0e7fc 3b7f3021 3cda3503 bc2ee9ee ba098fe4 bd68868f bcf5b98c bd42d550 bb369ce9 bc7f2867 bd1e6173 3d37c769 bd6c2713 bb9f56e8 bc5e9618 bc58569b bd4f52fe 3cd7938d 3d6d0be6 3d2b6ad5 bbf8917b bd234a97 bb9dae6e bbe9c1eb bbce818b 3cd782dc bd28d4c1 3c7a2a74 3d672ed9 bd4b1efc bc99ceca 3d0166ef 3acafdee bcfe5dec bcb944b3 bd5d85e4 bc8497bf bbe7b3b6 3a49383a bcc2c4ee bd20fbb9 3bd45af5 bce563b3 bd6cd10d 3cf55b05 3d177e39 bd1949ba bd69d9d9 bcf716e3 bd5a2612 3c9346e8 3cfa07b0 3bd20fac bcad017c 3bb089ee 3d19c932 3d13324d bcdecf89 3d3d9446 3bb6736e 3d3da92f 3cb1bf7b bd2720b4 bd34999a bceaa172 bd1f42b3 3c3bb755 3b409549 bd673909 3d14fdae 3d62ca15 3d2d42bb 3d60da47 3bb80e8d 3cc39a09 bc7664e7 bd2a0288 bcd4c152 bbb22a91 bca1e369 bd1d5c02 bcd2a1df 3c1e1a99 3c8d02ab 3cc5d05e 3cbe69ec bd51e18f bd6dd548 bd1106ea 3c825fec 3d69e98f bba1d4db bd2a3f08 bba8cc6a bcac0240 bcecab4f bd53b78b bd5e330f bcddd717 bc715907 bb4f774c 3d56aa9d 3cd19b8d bc81c143 bd3acec4 bb98c5e5 3c19093c 3d2b6f90 3c65ff93 bd219c74 bcf77038 bc7e93fa bce45360 3d3a6d6a 3cdb39bf 3d0821cc bca2814d 3d0c1ee7 bd2bb4cc 3cb1c7d8 3bb27bab 3cc124cd 3adc7ae3 bd4cef07 bd1b64c6 3d56b9c2 bca19a67 3d1fbc0a 3b1c867b 3ce7aa86 bce5d2ac 3cfd19b3 bd5bad67 bd56aad8 3c8dbd30 3cb3dceb 3c22028e 3bc1acb9 3b87c38e bd0db677 3d55f927 3b6918cf bbed9265 bcd102e8 bd44878c 3c743de3 3c4a991b 3c72f71e bbde99ad bd29f411 bd669530 bd38ba5c 3c70fef3 3d33c8f5 3d107fcd 3d0f42d1 bc03a67f bd19b656 bbb58701 bd47ee8d bd34bf7f 3d1b5650 bd10471b 3d2f0d7d 3d644b97 bb9e0989 3cd7b7bb 3b969601 3bbfb8f2 bd3bbe05 3c386be6 bbd940c0 3cb78cea 3d12d204 bd392471 3c3cf0d1 3d3b26cc bd720e70 3d33c9c3 3b2d5b52 3d6c61a4 3ba3bdb0 bd183724 bc17309a bcbb6cad bca35e68 bc57547e 3ce29760 3d24f8b4 bd288a15 bd4c9549 bd2c8de1 3d55a72f 3d0c75cf 3ce99b6c bc9c6154 bcdba1d7 3c380c34 3c3f51cf bcf951c3 bce116e5 bc909723 3d340eb7 3b669dd1 3cf76017 bd5e5416 3d149cb9 3c34dd03 bcdb1377 bcd0355f 3c5d132b 3a46d240 3d1ce640 bcf0c153 bcf2dd1f bd577dfa 3d37e3a6 3bd47a41 bcc2b4cb bd59a3a1 bcdc755f 3ce37b57 bd0b3c34 3c497c51 3d916436 bd45b48c bc805f1d 3d386965 bbd22135 3d14d21c bcfc69bb bd0d6108 3c00ef82 3ce44036 bc82106e bc96c116 3d1c84e2 3c8f5566 bd5f892f bd2ca8a5 3d436139 3c00b9c7 bcad0049 bd6f405e bbaa2349 3d4b3837 3d0195ad bd3d32af bcbd9b81 b9793ed7 bd0c639e bbfa4dad bce78c1e bd45d6fc bcc7e93f 3cf33a88 3d11950a bd00494d bd1a1a58 bd4ea2ec bbba2844 bd2988dc 3d5c7f1c 3d1eac28 3ce9dd6c bc4ff81f 3c8415d3 bb30ae12 3c8b96f8 bd600824 bd0590de 3d0712a4 3d9155a3 bd1ca561 bca9948d 3d403cc7 3d811825 bce6d70f 38a13ad5 bce72997 3d1ff8c1 bd09f3a8 bd51c7e7 3ca97bc2 bd1c2b12 bd6c16c2 3c85fc5a bc35d579 3d3d7d6a bd34f7bc bc52b16e 3d7ef19a bbdbdd26 3ab5412e bc8485a5 3d109776 3d560c73 bd32d9b3 3d4bc708 3d016cbb 3c68ef93 3d1bc1de bd447462 3bb97928 3d0f2c44 bd4b3696 bc501c5a bd6715c5 3cddac3b bbc1b9ef bd519a41 3c8bfe05 3c90f4d8 bb694f43 3bd8de00 3d1a8997 bd2bb388 bd19ae3a 3b1b219b 3c6181f8 bd1c472e 3d403b1e bd3b3379 bd5c90bf 3cfdb311 3d2107b5 bd0c95a5 bc3bfab8 3d4c528f bb870552 bbd497c9 bcbe92ae 3d2520a7 3cea75f6 bd5eb284 bd20ce30 bceff1bc bcea17e0 bd304b82 bca25813 3d475938 3c1b6f37 bd2ab723 bcc46f1e 3d0912ae bc9d8b69 3cdf6b2a 3bb15ad6 3c6f1bd9 bd210321 3c7eb4ec 3c5da911 3cd21b90 3b23c16b bd36daf0 bd64a6d8 3cbfcd22 3c917dd7 bcad9243 3d6135e8 bd5e17a8 bced0f09 bd190d3c 3ce96eaa bd254ade bd08e580 bbe8b0a3 bd65eb3c bca69730 bd50cee5 bd587bc1 3d194469 3d3bd4c3 3d3d5d09 3d4075ff 3d694720 3c265d88 bc741fcd 3d51c30f ba11bb23 bcecde74 3d11060e bc301cfd bd6fdac0 bb0e5b3e bc4883f7 bd648ce3 3d1bebe4 3d1bbe5a bbf4f449 3d1c4e93 3adc2972 bc498c66 bcc9b190 bbfebad5 bd3cf74d 3d53dca8 bd02b380 3d530003 3d10ec0a 3cb914c2 bc8fb96d 3c408e9d bd69a978 3cadc5d5 bd4a9e34 3d1790a6 3c83ecdc 3d586c13 3c33d8e1 bc9ffd57 3c704cad bd30af9e 3d1f158a 3c39041f bb4c3dcf bd4e3573 3d416307 bd40c374 bba8fa84 3d33fffe 3d340dfa 3bd59576 bcf91eba 3d3f8e5b 3d4c6008 bd0ba1ae bc5b27cb bd06875e bb8b981c bc7b9fb0 3c88b958 bd35551c 3d429d76 bd30c807 bce5f10c 3c2f63e5 bd22537f bd275765 bc8ac776 3d16822d bd234b33 3cea591e 3c1768b0 bd4f1330 3c19a06d bd4290b4 3d0d3082 3d060e8a bd2b2c75 3cf76518 3b983cf5 3d0458fe bd5934cd bc9ce3df 3ca37a69 3b9488e7 bc947af0 3cbd9e47 bd6e0aac 3cc71090 3c95e298 3d10e598 3d465fe6 3c70456e 3c9005e6 bd1b44ed 3d4f12c5 bd5afb42 ba9c3708 3c02145c bd1c40b8 bc4b6577 3d56fd02 bd69c87c 3cb07de7 3cad8a3d 3d66a6cd bd54cbbb bd22765f 3d5d02f6 3d1acb8c 3d253396 bc163eef bbeacf44 bbe5dece 3d6f3300 3c759d67 bd55abef 3c8c5e61 3c98ae64 bd408d67 3b0025a3 bc99ec17 3b8ddfdf bc911825 bc84d513 3d5000a7 bd2ab8ba bc8db5ad bbfda055 3ad57084 bd2942cc bd60af2e bd00dce1 bd30fbf7 3cd39e78 3d568fd7 3d3b1810 3ca9af36 bd373d1c bd3c4cac bcfce53a bc9d20e0 bcd8c348 bccdd108 bcac5857 3c5a262d 3d2bd7be bc2d8582 bd027b6c bd1aaecc 3cc5887a bd14a377 3d538488 bd3e3636 bd1916fe 3ccb41ea bb0bff3b 3d50771e bc49e4db bcb40904 bd5416ec bcee8c77 bd05f58e 3ac303ff bd14249f bcdc754c 3d31706f bb20800e bbdb41aa bc72d5e6 3d098607 3d363888 3d579b44 3d518379 bd259322 3d65f8c1 3d0aaddc bcee1f7a bd0a87b1 bd47b790 bcffec2a 3ce29df1 bd0bdb96 ba67bf5f bc86c7f7 bcbc30e2 bc06dcf1 3cf438ff 3d2a314c bbdc4982 bd0d35b2 bd21db43 bc93edbf bcecf319 bd2bde75 3d43a715 3c828eca 3cecc252 3c272d6f bd207326 3d63f25f bd1ebbc7 bcd6f05c 3c6b7000 bc5e4635 3c16f12c 3d54b928 bd5c4654 bd5bc12b 3d2c9027 bbd72481 3ca57b6b bd278a15 3d0298e7 bcb84f38 bd642316 bac2b400 3d061162 3d139de4 3d0d066f bc07d052 bcae870e 3cc45d81 bc8369e1 3c966726 3c8366c1 3c813008 bd2d7bf1 3bd4d900 bd076576 3c0f76ec 3c9a3a69 bb51fa39 3d5e0061 bd335df4 bd0f137d 3d2ed9ff 395176b9 bcfd1ca7 bd6ad7b4 bc9e4f4e 3c99f45d bcfb1caf 3b8437f9 3d4345bd 3b13cf66 3d481287 3d123c0e bc6e6998 bc476bda bd1ec540 bd22aeb0 3d278a23 3c82ba8f bd0e7c66 3bcf7cac bd654c7b bd6b9673 bc5d1d63 3cfe490c 3bdbd2a6 3d40d361 3c27d0f6 bd03c402 bc812201 bcd5f4fd bd4dc9ee bd18928d 3bc04797 3d5cf55c bd6b577e 3d6ffe63 bd125a89 3d6a1a83 3d0f09ea bd40598d bd5deebe 3d2ef89b bd14f320 3cb14d37 bd56a744 3d094600 3d53ca68 bc4a4523 bd5ecc32 bcfd403a bccdf100 bd4972f5 bd53092a 3d3bdad4 3bd82e50 3c28a67c bc8b847c 3d1e127c 3be65287 bd69b715 3d3b3e9a 3a03c87c 3d1dc915 3d152159 bcf6a59e 3d271403 bc9d2ad5 bc583684 bca151b1 bd104412 bcdf4ff6 3cdc5ac7 bcd2c6fe bd31f12c bd1f5923 bd240070 baa1e932 3cab3f28 3bd1f567 bcd655f3 3d34e56c bb08a791 3b826e3c 3d54618b 3d69f736 3d6875fb 3d6335e4 bd74b721 bd6b53d1 3d301a81 3cbff43e bce8a510 3c7f834c bb93b698 bd772551 bd041523 3b135f21 bd66f9ae 3d602ff2 3d21b987 3cf1ee6a 3d82545f bc321de9 3c733904 3d669cb2 3c3b11fa 3b209bf1 3cc51a4d 3cf0f1d5 bd49e74d bc6dcc53 bd05371c bd4590de bd2e9a94 bce19894 3d4b8dc0 3c92f34a 3d372587 3b6afbee bcf88cee bd0f28ef 3c6f29af 3d53d477 bb78ca0d bb6d5b86 bc9782e5 3b9f7084 3d3cc4f5 bd2a4d80 3b30d2b8 3c77db83 3cdf027e 3cc8119d 3cf380c0 3c22ddb6 bce216c7 3c5139bc bcf02a94 3cb2674e 3c5e6343 bd02217e 3d31080f bd2bfee3 3d1159a7 bd80e167 3d625f9f bcf2cd39 bd48fb7f 3d0b9083 3cecc4a3 3cf31dce bb273a64 3cc45749 bd1362ce bd118a3e 3c1de2df bb00d410 bc5b0fab bd072d0b 3cbdcdf3 3d17b8b6 bd094cb7 bd73fb86 3d578d45 3d1b6d94 3b4a2c6a bd2d5142 bc147b8c bc14e851 3cee65ee bc0a2c01 bccc90dc bc516565 bcaea719 3d074417 3a926d3d 3d7358a0 3d2836ce 3ceb0e49 3d27d178 bd32952f 3d1d8c6f bca812bd 3d1356fe bd39eaa6 3d8f5dd8 bcc126d1 bd4cacaa 3cfa0e4c bd76c0e5 bd037d5e 3d7c98b0 3d4a3b2a bb9c3189 3d439334 bd37f0b2 3d0b05a2 3a098405 bbe1dab5 bcd60695 3d3488f9 bcf13c70 bc783a58 bc653be3 3d5c8c7c 3c624086 3cb988c4 3d5dc69d bcfa1e56 bc402386 bcce1d11 bd87fb96 3d9fc958 3bca520e bd3f8d2d 3c8de07c ba4a53d4 bca0d1b6 3d8c460a 3d1e4099 bd2e1055 bccaea52 bd5bccac bd1a4b9c 3ce87ee9 3ca00bc3 bc9316b4 bd27bf4b 3d4a8f3a 3d1df492 bd0d81d5 bd2f1bb5 3c2f71ae 3d034043 bd0b84be 3cb3945d 3cbe0ad1 bc02bb8a bd92221f 3db02181 3da7135d bc018a60 3d923d86 bcf63c49 bc7a63e1 bcabe8c4 3db109d8 b9a0ee53 3d5e5aff 3c2bf5cd bb156f14 bad62b89 3c88bc6b 3d58144e bbc8378f bb699b98 bd53b28f bd1b9e17 bda55cdb 3d1d145a bd17edda bd48d156 3caf52f8 391982ef bd654213 bc32f0c6 bc913f08 3d97bd28 bca27403 3d5eaf8e bc424714 bd937a67 3d5a1952 3d362669 3c7fce37 bcbe1a6a 3ceca1d5 bd193ecd bd1681a9 bd04fc1e 3cda0a22 bd680385 3d336d39 bc1b9e5c bc939dfd 3d18a5e7 bd21a012 3d5c5825 bc08cd52 bb5a5f33 3c90b4a5 bd56259d bd843e61 bcbf5b4d 3ce94331 3d413f01 bb382313 3b6f044c 3d26c24d bd60be50 3d0dfdbc bcd3035c bcf19511 bd618f3f bd512967 3d19de0b 3a1f7e44 bd40cc83 bc6dfe3d bd69faf0 bcc1de31 bcda7c1f bd2f76a6 bcb91423 3c4d9cc3 bd02fb01 bd86b42a 3c48a99e 3c67914d bd2d4d77 3d500229 3c5cd53b 3c4ac33b 3d1a12ac 3cfb6daa bc9ecefc 3bde237b 3d55cec2 bb7e8276 bcaa20ca 3d7e9b92 bd3ee14e 3cdf189c bcc5659e 3b8434d3 3d8f38fd 3d95d5bc 3c485eed ba422238 bcf9be8e bd813151 3d8c576a 3ce71841 3cda30c0 3cbee7c7 3d45abf1 baba04a0 3d448793 3ce1ee12 bc0a9c00 bd31985c 39d314eb bcd32603 bd7358a2 3c2ea13b bd79fd8a 3ca3e4c4 bc7c1d39 bc810adb bd85b9cb 3d27088b 3d2f2ea9 3b148d2f 3d06ba27 bd1e2fc6 bcb7ef7d 3da16f57 bded895c 3d30be0f 3d67e2ea 3d0c27f0 3d6fa4bd 3daaa49b 3ca4e440 3d1f6d60 3d0247e0 bce6aadd bd805bf3 bc72e49f bcfb0e89 3c3591c7 bcd84ff5 bcce24b6 bc0e2126 3d7c8ddb 3c1f12a2 bd520e14 3d51ce25 bd1d83cf 3d8b8d91 bab41850 bd67519a 3cbaff08 3dd19a5e bd29eee2 bc6137f6 3daa76fc bd005429 3d2ccc74 bc84d3ba 3d0b695a 3bf769bc bd6c384a bcba8861 3d25c21b bd472f41 bc3725a1 3d6ab5f3 3d6b35c0 bd167e94 bd474fa0 3d8c1fd1 3ce684d7 3d57930a 3d345055 bd5f3616 bcc2f838 bd23b036 3d082934 bc284baa bce49a68 bbd52821 3d70043c 3ceb490e bd31fb5b bc698335 3ceb614d bd83c192 bcd169a2 bd0406e4 3cc96230 bd51ed51 bd764785 3d73c6c1 bcb3897a 3cb79f51 bb8ea03a bd62783f 3dc8a3dc bd3e58d7 bc2ac33f 3dade886 bd579397 3d6eab0d 3d414f69 3b7a2ae4 3d017a90 bcafd393 3d1ee8f4 bd1aecfc bd5d3ae2 bcc7b9c7 bd940fb9 bb92775b 3d0ecc14 bd6dbed0 3d55dd48 bd913672 3c760af6 3b7eb4ee bd646862 bce74d07 3b7318d7 bc42bd5b bccdc356 3bb7db47 bc594e89 bd589d1b bce164df bd2b14ae bcef1800 3d63e4c4 bdb18306 3db70e5d 3e20f25c bd855f54 3e1f7cb0 3d846f38 3d07c615 3e260363 bc23a7ea bd669b32 bccbd912 bd25e937 bcde5732 bd3ec2c5 bcac1ffa bc2890fd 3d123415 3c9efb54 3cd1df43 bcbce488 bceac7df bc2a69b5 3c21ba04 bd3aeefa 3d09f3b0 3d4589e6 baf3d9ec be15882e 3caac20b 3e063148 bd3fe052 3d193fc1 3def507a 3cd6ffaf 3e2d9d5a 3d42cd03 3d49c3b0 3d58aeb8 bd539652 3d4d1999 bd30e906 3d064766 3d3d3f74 bcb543e6 bcec7ee9 bd77106c bcf39189 bc80c90c bcc303c9 bd0b3e88 bcee49f2 bd8dd907 3cfbe6fc 3c7ad470 bca48922 bcfed4d3 3e1af111 bdfb2b5c 3c981574 3dcd0ffa 3d59d7e5 3e107655 3d2006f6 3c60c449 3d2f2a36 bd8e50ca 3bde51fd bc319a63 bd7354ed bd82e6cc bbba7c12 bdb6a975 bb9dd554 3c562ddb bc983131 bd5035fd bcf81437 bdc8ec0d bd79539f bdbfe509 bda1da20 bda066cf bd5fa487 3d275e99 bd486ba5 3ceeedf8 3c9956ef bd420236 bd213acb 3dc69edb 3c8ee015 3d108f62 bb9c0722 3caa10a0 bcf4b43e 3d6105c4 bbd06825 bc9a23d7 bccbd6ae 3d0290d8 3d240988 bca62321 bd798ead bcf2c270 3d8c4521 bc28248b bb108995 3c8afd6e bc011cd4 bc9118d1 bbc1def0 3d1507fd bce1bb27 3d45c3af 3d8b07bf 3c80e286 3ccc09d1 3d4670ec 3c86dcac bd42a714 bd42a2fa bd37ee17 3ce34979 3a794b3b 3c5f0779 bd5d378f 3cbe7f79 bd92df07 bd52e8ab 3cefb127 bd176af6 3d17081b bd74404b bc64a068 bd9579c5 bdb1d618 3db52152 3e243a8c bd198f65 3d618e1d 3df04bd1 3d812f79 3e212b17 3db92d49 bd4a3cba bd36bf73 3df1773b bdca1904 3dcadca9 3dada2af 3d029ddb 3dd6f603 3df30f7b bd1810dc bca7d14b 3d71bd5d bd78a9d7 3d05b9d0 3d292c0e bb2dbba3 3cf03240 3c175d81 bd69012b 3bc161a3 bd202980 3ba5be22 3c865d5d bc378c7c bd0917cf bc578e37 3c5d0c5a bd1204f7 3d474179 bc81bf84 bbe456cd 3d6e2a81 3d6eb45e bd4faf7e bd2218f0 bd0f2e96 bcd935bf 3d52ebba bc5e0048 bb95c3ed bc3ba583 bd65b000 bd092da9 bd4d2537 3d7054f4 3cff1b50 3c9cd411 bc6225d3 3d0c93d6 bb4c57f7 3d5d7c8b bced49e7 3d280b4c bd5289d5 ba793651 bd42b6cd ba84509a 3b83cb9f bd2d02ca bbac0a66 3cdfccff 3d586f48 b83a605f bd2ebbe8 bba9c558 bd4a0a9a 3d13d816 bcb64406 3cd98702 3c4646d8 bccc1705 bbd29772 bc16a666 3c87a4e1 3d3207bc bd10ab7c bd21f7ab 3d1b8fb6 3c9c72f5 3d07867f 3c68ff23 ba759215 bcbaaab2 bd1ea6bc bd1e8ecc bd287197 bd13dd83 3d5169be bd69b038 3c0ce745 bcff887f bd06fbad 3d05d4a3 bd19f2ef 3d14ce2c bd6b45fe 3c45420a bbebcbc4 bc0f7db2 bd629761 3cd2d3e9 bd5e44d3 bbf3531c bd05f1f2 3d4d7eee bcee469d 3d2f1414 3d44f166 bd2799c6 3d56efcc bcb6317f bc597728 3c410f26 3ca6984c 3cb5fc78 bd057163 3cd48bbd 3d565a5a bc49966a bcc8f2ae 3d69c74e 3c0f24ca bd1eee9e bd331eda 3d431c87 3b232808 bd1961b2 3d28b135 bd133c05 3d57014e bcbdda6d bd6e2905 3c7ea860 bce0aa09 3d116abf bd0b6b73 bcd7c43a ba0fd393 3d11ee47 3cd4ff2e 3a875851 3d6539a9 3d68499f bbef5403 bb17bb58 bd550317 bc183fb0 bb9d2cd6 3d025768 3ca62d2b bd0ef96e 3cbd0276 3d2a3623 3cf9bbe9 3cc065ef bc195ff6 3d6ad42e bc9da37c 3c32d6de 3d125e62 3ba1f252 bc028096 bd3ee586 bd11a067 3c0ba975 3c57304b 3cf56b67 bd22dfff bcb62044 bc23724f 3d023381 bc9bd761 bd0f8a6e bcbddeb6 bd467386 bcbcce64 3d519479 3d23d255 3d1d836a bcd40ada bcf8db1d 3abebcf6 3d3fffc2 3cdaf5c1 3c0f0418 3c3ec8ce bd438ca9 bd1ccd98 3d53957d bc8e5664 bc5f1ed0 3c88a3bc ba010151 bc56e004 bcb2994d 3d129d79 bc597f1b 3d25de00 3b2fed74 3c5ddfac bd3681be 3ce07ce1 3d3a8ea1 bc8f2271 bca11bdf 3d5e48a2 bcd6002f 3d507a71 bcdf8cfe 3d117d76 3ca98a27 3d570730 bcd788b2 3c8a3081 bccec19c bc80f108 3ccf8afb bd25b748 bcd961fa bcf48e0b bcf650dd bbeff8d7 bd258db9 3c18e23d 3c42b805 bcbac19a 3d1c38d4 3d0efd30 bcef016c bb8f3f48 3c5eb6b3 3d13d93f 3d18cda1 bd4298bc bd4481ab bc5a292c bc8317a7 bd32ff39 3d0ad2ae bd4057cb 3c6b8832 3cf03258 bad0a290 3c8b175b 3cb9b240 3b808fb9 3d59126d 3c4531a2 bd28f659 3cd84377 3d573c85 3afa3e0d 3cb529a7 bd280eb4 bca5d6d3 bcca7dab bd47f61d 3d5cd138 bd314f1d bc1cdf0c 3c24e9f3 bbdaf5da bd45def3 bc1f70c5 bd474bf4 bd64e1e7 3d47c684 bcb415a1 bd563e0b bd083405 3d5aa743 3d6338b1 3ca63e7b bd025a18 bd5c94ff 3ce1de98 3cef8f02 3ce8a3a1 3cdc1c24 bd565bc1 3cbf72a8 bc8312b7 3d2b67d7 3c3da314 bd457b4a bcc53910 ba707806 bd0d9957 bd08e766 bd677e82 3d3ac80c 3d4a4570 bd25c923 3d0196f4 bc14ba30 3d43fda4 bd5566d2 3aa17f0f b926aed5 3b832ebe bb1a18da bc098045 bd4519a2 bd68582e 3ce81dd9 bc8e5767 3d3d87db bd34dc25 3c836bd5 bccd4f3d 3ca5dc9c bc38efea bcb164a5 bb9156e8 3cff7910 3d1cacf9 3d3ded00 bd457519 bd12200e 3c1a05d3 3c055f23 3c90312e bc05d3e9 3d5dec05 3c40e6e8 3cd66374 3c766688 3d90ee65 3c0a5acc 3d987c60 bc57a812 3c4912af 3cc6e9fa bd4fb8a6 3d0bebc1 bd29bcae 3bd7e66a bcf08100 3d4dbc84 bc83c186 bbd2b305 3d18dbf6 3b49a6c5 bc2115ce bd1bd273 3be835bb bb13c669 3d704d0e bca3e9ce bc946415 bd2085aa bd0ff297 3d2e7a32 bd21066b 3d6ffa43 bd381734 3b896e69 bd0d2674 bd9e08f5 bbd07a9c bd4f951f bd421a57 3d2d2cdd 3c8ec573 bd411731 3b97e3fb 3c595a34 ba1cf51b 3d446c6f 3c1e6556 3c2033d3 3cc44733 bbc44cba 3d3b0d63 bd56389e bd72120f 3cfff57a bd7a4a51 bd488793 bb79a690 bd0b5aad bc972ca4 bb3151b3 3afd5534 bb9fec44 3d0bc9b8 3bdacffa 3c93395f bcc6b5bb bcddceb9 bd08d4e3 bce55561 bc630192 bc713599 bce37694 bd738361 3d732885 baf016d7 3d705fb2 3aba1b4f ba48b55a 3b905d44 bc51f823 3cb03a11 bd622a35 bc7613ad bd285e7b 3d722df0 bca5ed15 3a6f520b 3d1c1f45 bc9cbe2f bcaee2f0 bd3729dd 3d218636 bd12a4f5 baa49192 3c3b9d6f 3cb96ea8 3d208d9b bc49f9d5 bcf73121 3d6164f0 bd42858e 3d05d5b2 bd0c54a0 bd315322 3cf3162a bd3815f6 3beab1d7 bd1b6c0b 3d2e2eb9 bc1abfba 3d5ec45b 3d6c6974 3d21be17 3cbc218a 3db4e379 bd13016f bd973cab bd2a738c bd4e80cc bce28ffa 3d07398c 3c113af8 3d4e8f8d bcb0bc09 3d1ccc86 bd126142 3d59a641 bcc5e786 bc4c188b 3d27c8ac bd14bf7d 3a2bcd94 bc6a53b2 bb5aa809 bc017af4 bc24c011 3d8b5726 3dae88e9 3d31811b 3d2a1812 3d9e2855 3d122e9f bdb45e29 bdeb7f63 bdcf475f bcb53f39 bd650fc6 bd08eb93 3d1b4262 bd57a0e6 bb85a9f0 bd642dd9 bb020f5e 3cf0230f 3cd1401c 3afae18c 3d2ced72 bd249143 3d09600e bc8eb975 bd61f497 3d2496d4 bcfe5ddb 3d96c263 bc858cfe 3da304a5 3c27b182 bbef0b04 3d6d86fe ba907658 bde086d3 bd742d3c bba1f308 bc40782c bcfac1b6 bc91ab85 3ca1ecf2 3d19865c 3ba2915c 3cc21dc8 bbd24727 3b98d1cc bd451b80 3aaac2ea bd88592e 3c7b4e62 bceccd50 3d102fb6 bd69bf21 3c99363d bca4a650 3d16b282 3d439731 bd3d8ddb bd1cac8b 3d8ab78c b9580e43 3d4b0d25 bce3c696 bcd4f3e1 bd70a808 bca42028 3d0a24a3 3d28cdff 3d183b99 3d6bc6f4 3d12124f 3d4abdb6 bd2ab6ed bbe47d34 ba946eb8 3d3ff228 3bf58101 3c52daf9 bb063db0 bb282332 3d43ab2e bd045db4 bd188a33 bd22e876 bc2eb2a5 bc85295d bc12769c bd199021 3c72e57b bd7bc495 bd051601 bced3368 3cb17736 bd25a3fc 3d82cdde 3ca9d2c1 3d20e044 3d5bfcbd 3c0cd4a7 bd71ba6d bc4186f3 3d46a85e bc84e60d 3d50ff4f bc46db95 3d265d45 3d54067b 3c753bb4 bc2333f8 3c9d0615 bc590771 3d9dfd81 3d829970 3d6d74c8 3c80e546 3c5f67c9 bd80d0d5 3bd8067c 3d2bbf06 bc274ed3 bca34683 3d72b091 3c41eb51 bd411137 bd7c44a4 bd6ce069 bbb34c2a 3d1ad9ea 3b850aed 3d8f1a67 3d101cd6 3dabab2e bc357093 bb9d525f 3d7b9a91 bd45d86a 3d34c63e 3d46d33c 3c7447b8 3d5e7583 3d6ca45a ba6c9021 3d0c0c53 bc955f91 3d070804 3cbfd912 3d617bd4 3d393018 3d1e2c88 bd31bc2b bd244e4e 3cce351c 3ba31db9 bd445620 bcd2a33f 3cd0f466 bd91c144 bd7ce479 3d71fd60 bc6203b7 bc0ddb05 bcb3724e bd29b53b 3d29bc6b 3d675b66 bd3653dc bca18f44 bd684630 3d76f92b 3d5980ae 3d47ba07 bc7dfc03 bd377811 3c8fa88e bc719b1c bb9a2997 3d4ea3fc 3d061f28 3d40a823 bd2274df bbf0f5d8 bd148b44 3da62add bd87493a 3c9dac9d 3da2f304 3cb33d18 3ce030b4 3b5ac5e2 bcbacc87 bd056bf2 3d41c9cb 3d314bd4 bd105cf9 bc5c7257 3d36d938 3bccae80 bd0f0446 bd3ed1be 3d1c9dd9 3d6f077f 3d65d56a bd5937f3 bcefb44f 3d5ebab3 bba3876c bc84e57e bc82bc5e 3c418fa3 bbced461 3d4e3c2f 3c86eeb2 3c9ba156 bcb082be 3d13c627 3d433437 3d535d66 3d4b5fab 3d4b6b51 bcce26f3 bcac4d22 b9cbf3f2 3c7a4397 bc2e7773 3c8a968d bd7759b6 3b822772 b7884945 3d2bb0df bc86e357 3ccbc5ca bd40c75e bccfb228 bca6db9f 3bf15dd5 3d5b06fd 3c21b387 bcea8a39 bcbb056a 3d2f4456 3cf245e4 3b44a2d3 3cc7d930 bd5f96e3 3d402404 bd1f8925 bbad6803 3d2e4cc9 3d880bba bd6dbf86 3b97150d 3d199885 bd0ce92a 3cf6d113 3cedb7e8 bd05e68d bcba99ba bc18dcb2 3cca1b15 3c5ee2e4 3d719d20 bc284885 3ce4b8ac 3c9e9a96 bcd6f624 bcba6d6b 3d3b5e2b 3cd3e7d1 3d0ee399 3da6dfa1 bd19be56 bce58b45 3d00c8ed bd0cae99 3d347b34 bc279f30 bd425376 3c325cbe 3d6762d2 3d388faf 3d28fb67 3d751cc5 bc9f4e8b bcccf024 3c0a706e 3c8c158d 3d658b2d bd2f0d60 bc34b59c bca4b422 3db08d33 bda4ba39 bd848081 3d8aa623 bb2b45d1 bd520123 39cd9541 bd158cbd 3d468547 bc765215 3d66be48 3d2a8b0e 3d206fdf bba9e723 bd092352 bd2afef2 3c8340ab 3d0daf74 3d8c72c7 3d277594 3a510db3 3d823be1 bc8568f9 3c865e6d 3c25aad2 bcc389d2 ba142a9d 3b922c92 bd78c1a2 3cd7078f 3d40628a bd9ce512 bd8d53dd bc1dc0b9 3cb6f156 bcd078c1 3d513afe bb59ded7 3d0a3a1c 3cd1f1f0 3d761796 bc0f38f7 3b13e10a 3beea561 bc9d6565 3d2c80c5 3cdaa281 bcf71883 bd3e61a7 bd2cfa92 bb1a103d bd09da93 bca49ecd bc721d44 3cf3f666 3d3e01de 3d18f06e 3c2db39a 3d256eae 3d1cd66b 3cb16631 3d1415ed bbc48d5e bc9e6698 3d4d464e bc33362c 3cad8eb1 bb4555f7 bc94a596 bcfcb99f bc3ab98d 3d864afb bcbd4ca0 3d922d15 bc065d49 3d339690 3cd26c13 bc544003 3cf26c87 bcd7677a bb8c5381 bce441a2 3b9d75ed 3d42e78f 3ca738ac 3c1ed697 bd6aedb6 3a169f09 3b236c03 bd77fc2e bd2bb83c 3d63f429 bd22ff4e bca9771b 3cbd2311 bca4f035 bd4fc810 bcd826d6 bd270a9c 3d185f63 bd5ac36d bd65ae53 3ccdbc64 3c8c65db bd5641a9 bd73a7cc bd5baaad bc5f3d98 3d152d2e bd580ba7 3d393276 3d49d8a7 bd9ad20d bd2d9894 3c823840 bbd9da5d bd058a16 3b281779 ba523dba bd452e61 bb203677 bcd33b7e bd442d62 bb16c9b6 baa19dbb 3cf2f268 3d56c592 bd5c6a7d 3d43f0f2 3d9751de bd8e329a bd450129 3cc13e5e 3cac3cd3 bd55d369 3d36ea84 bd71a995 3d174168 3c949cac bcd814b3 3d64d5ab 3d639576 3d4612b9 3d4dd8d1 3d28d370 bc53eb5f 3cd2f093 3d031eb6 bc61c73e 3d1d4e6d bbe899e5 3d2b1b5c 3c870683 bd1006d4 bd89df12 bdab41ff bc1ee32d 3aa260f2 3d4c6ecc 3d94063e 3d687a87 3d133f75 3d2c5512 bd544d1b 3d55e9b5 3d4a5951 3c928d6a 3c5631ee 3d128ebf 3ba98f9a bb77fcc9 bd144fe3 bbace544 3d320e50 bca7e718 3c88edac 3bc7ae12 3b800316 3d6fb56d bd49a620 3cf1a180 bd21b69f bc6189e0 3d3d53b3 bd2a3f1b bc6c58b4 bd1caf09 3cf49568 3d43e2dd bd541407 bd622e8d 3c15d840 bca2b765 bb658ad0 3d631cd9 bcda48e2 bd063986 bd153b6a 3bbb5e55 3d04aed2 3cc02543 bd5af0b4 3d52743b bc830649 3ce4eccd bcc9e719 3d39fbd5 bcd448c9 3d38bd71 3d1fb2aa bd502559 3d3ef72f bb621913 3cce6470 bd2ad8c4 bcd325d6 bbde5cf5 bc4ec89e 3d3911c0 3c8781a5 3c10549f bb9646bb 3cffe236 3d599cfc 3cdc4c06 3c2bf826 bd2d80cf 3d08e896 bd6e635c 3d654938 bcc158f0 bc159b36 3c8feb8b 3d33793e 3d017d90 3c0f88d4 bafd6c81 3bf20f81 bca7f3c8 3cd0bb00 bd17fb69 3d1c3d03 bc49c4d4 3d0b41b6 3d66480c bc0a088a 3c4536a0 bc73df93 bcb1734c 3d19800b bb82cced 3cbbc2fe 3d1356a1 bd03459a 3c45d107 bca138f4 bcc391b8 3c02603a bd60bcac bd35638e bd245f0e bc220a82 bc32086c bd7db5d3 bda43e7e 3d22511f 3d9922cd 3d3d77c7 3cfd11e4 bd60d775 bcd9a46f 3c8fdc2f bd298b79 bd70a82c bcc79902 3d3b96b3 bcdcf1f1 3c46d1b4 bc9e90f6 3cbbe580 bcdb639b bd150263 bc814810 bd0bd921 3d231b9d bd190086 3c9bd727 3c69a371 bd0b9578 3b240912 bd90c87f bc7bd66a 3dafea66 3d903afb 3bac7c24 3cc73110 3b71401b bd148fbd bc9428be 3d4914b1 bd62a570 3c23488a bca336d8 bc276016 bc98c22f bc628ae2 bd3bd8ee bcf08974 bc43d170 3cc04893 bd499bd9 bb7d66b1 bc441317 bd605a8b 3c48f96f 3bc53e86 bd66d464 bc7b4d2a bd9a7389 3d97918e 3cb2d551 3d445174 bd29425e 3d845e35 bcc81177 bcbe3a3f bc96f4d9 bcabf7ea bcf2bc2b bd28f1d7 3d49e608 bd5b16f9 bcb890bb bc93d7d9 bc9df706 3d8b9726 bd13b7f3 3b223ebe 3d6a45f6 3d9df67c bc826d32 bb1ecb5d bd1d1061 3ae0e7ca bbcef501 bd82f114 3d2a35ef bb1f614b bcc7e294 bd15422f 3cf8ed1f 3d086519 3ce21749 bc950dce bc7a140b 3d44b1f1 3d6dc5a2 bd395de1 bcb805ec bcfa2b9e 3d01a5ea 3d00fd62 bd5ec756 3d04e1c9 3c57c1dc 3cb2a73e bc2db0c8 3d01a6ce 3cfe59d4 3cd6d584 bd018250 bd3eda87 bbe74ab3 3d57792e 3ca2866c 3d37868f 3d26f390 3ce6a91a bc794222 3c0306ea bce4220c 3d16321e 3cd7513f 3d4969af 3c88a666 3cdeeb89 3cbc1ea6 3cf25dbb bcf72242 3d4671d4 3c26dff9 bbd2a723 bc91c25d 3a751300 3d12129f 3d8c3ec8 3d60e977 bd95016c bce5c244 3a4407ec bce797f1 3ced527f 3d53a470 3a90af82 3d16257e 3d657ec3 3cae0c1c bbfc5d0e bbdf0eb8 bcdb2c8b b926c3f0 bca162d3 bcc5b68c 3d9ac6a1 bca01cd7 bd3b42e9 bd21c683 bd7d963b bcb75e56 3d081680 3ce0fec6 3d0a9392 3b4862a7 39bb6441 3cdbb722 bd033799 3b3b06a6 3d191728 3c07feaf 3d69f1f4 bbdd694a bcb4cc5e bd1cbb42 3bd3bc7d 3c5888ff bca6d9fa bd47d0cd 3cc7c0ff 3c925199 3d47b046 bd0e2667 3d762ac3 3baa5588 3d3126ca 3d55c345 3cbd6c93 bd52c3b1 3d5c3270 bc2a1dc7 bcb401ee 3d57bb3d bca50f72 3a452c79 bc59a968 bc609cb6 3ce5111a 3c9432b6 3b53f216 3bbd49df bb4383a6 3c8f966c 3d1a51c5 bcc5788b 3cff2e51 3c2fefee bcaf202a bc7a9f40 bbc36de3 bd55d63f 3ba5dcf8 3c095c26 3caa9fa6 3d3126e9 3bb0b24a 3a996919 3c0b21f8 bcb083fc 3d012fd2 bcfe99f0 3c6fc83c 3d3029e3 3c9764c2 bc60a451 bd2d9d71 3d596c4c bb900fb4 bcfeed30 3ca2e5f3 3d160189 3cf3c7b2 3cb2a7cb bc5452ee 3b962515 3c30440f 3d193c12 bcf9a035 3d6c5ae8 3d5b7404 3d5b5798 bc8d0333 3d22d755 3c89fa7d 3d5bf934 bc2e0dbd 3d8592d3 bc5a2c79 bb771b95 bb924700 bd0d51da bc77904d 3d3231d9 3d50fda9 bd59d9e6 badba7bf bd2fc276 3c3d9dac 3d0c5d26 bd67a4d4 3c111c24 bd2f5598 bb3db931 bcf5caa0 bcd3f83b bd638247 3d58fe01 3d1c2e6b 3c490613 3d5bb4e1 3cb6c953 bccfd2ba 3d200fde bc965efa 3ba0e491 3c6ad1ef 3ca03428 3d7979c3 bba6fe06 3cf4b47f bd12ba68 bca4ec51 bd43abdc bd5dae0d 3cc28b62 bbc920c6 3d026cfa bd6c6b00 3b00e5bf 3c65a4c8 3d37c9cd 3d91a92f 3db23b24 3cb91b04 3db3c3fc bd3ca8aa bd2d7158 bd17bdb8 bd4e3965 bc30f400 3bf0145e bbd242ad 3ac5659f bbb99955 3d4582aa bd13ae9d bd6dd40a 3c1de808 bcc8e647 3d3e3b62 bd1f952c 3b9d8605 3d544a3d 3d1f7fbc 3d6b4567 3d3f6d8e 3cfaa33b bb12368a ba3b01c0 3d92bbe8 3dc57943 3dcdf33b bd28d854 3cd59f52 bcc3d02b 3c0fbd30 bd31bbfe bd2d9827 bd1b8cf2 bd44ded5 3c79c6d9 3b618b43 3c957b2b bc5a168c bd72c9f4 3d37867a bc1aad1c bd03692c bba3eb5d bd2eba6a bbd6a553 bd45a052 bcf0a463 bbf0c612 bcd55d42 3d0b76e4 3d73a1ac 3c909ef5 3b12333a bd43439b bd5a8a44 bc786fae 3cb588dd bd0655e0 3a8b2aa8 3c881659 3d013077 3d0c3ad5 3cce73dd 3ce650ca 3d20adcf 3da025fc 3d8cf423 bc84a8de 3d8d6680 3d2425a8 bcf70b73 bccb887c 3d358748 3c295cd4 bd0fce01 bd1d5144 bca6b7ec bd1ca231 3aacdc38 3d86d406 bd0db156 3ce1d593 bcabea16 bc6e833e 3ca6adc1 bc93935f 3cc537a7 3b25334f bd01325d 3c57ba08 3c2e05b9 3ce8f17a bcf7aaea 3b33cd00 bc97822e bd5e999a bd3fcf97 3ac58c6c bd6bfaf4 3cb07084 3a78540c bcc37a0e bc68edf9 3c4bad97 3d851a3b 3d4ef05b bc8298c1 3cd02888 bd82b926 bd4d8086 bd0b7fa3 bd324dc5 bcc6e44c 3d6dd544 3d8faeb7 bcb71925 bc0e4d08 bd0535fb 3d286204 bb0b5bb2 3d573dbe bbd5dd49 3c6bbae8 3c7756f6 bc21fec4 3b81a14e 3cb96504 bcb9e089 3999fe82 3ba416f6 3cf77307 3d5ef6c6 3b16f87d 3dad4a0d 3d1ad466 3d323cd2 bbbbccaf bd4a23f4 bb5f1cb6 bd49e728 bc87c6ad 3d224e2d bbc8fe9e bd416c61 bd2baf1b bb50acf2 bcbaa6c8 bc99734a bc660c3d 3cfff688 3a69c743 3cf7ea1f 3d39c91f 3d97f0b2 3d37a449 3cac23e6 3c3a5c18 3d4a7457 3d46286c 3d1e4211 bc086a02 bd08025d 3d019e9c 3c0fa164 bd3261ca bc250aeb 3cb7c1b7 bd5b43bf bd414152 3d1db79d bd120cf4 3d6335eb 3ba222e8 bd5a2762 3ca27a28 3cc878e5 3c3f7183 3bbfde28 3d4d2418 bd381c2f bd4b841d bc94fd32 3cd6c9ab bd573886 3d1b1f41 bcc133db bd00f8c5 3c20da4f bd50b142 bd1f8a4c bc48b34d 3c165173 3d63a12c 3d09311a bd2a4e4d 3a4ecd4c 3d70098d bccc33bb bd330ced bcf15a22 bd25d184 bd12b7f7 3d50498a 3c34fd0f 3d0a733c bcf4e8a5 3d64aeea bd54743a 3d148dbc bd12e1ff bc5b0811 bd3e476a bd0cef03 bc9a6f2a bc1ca60f 3d178fd3 3cf1cc59 3c00dee4 bd07820a bd14e515 3c0ce1b0 3cd0dd3b bc87e83c bd1e14d4 bc76f0d0 3b5ff3f4 bbe91c97 3aae76e2 bd5eb40d bc82afd3 3d4c2038 3d672a1a ba6a7d53 bcf92667 bd6c267e bcb07522 bc96c72c bd134a55 3d060b76 3d0ef05e 3c6bd957 bd098153 3d32cfa9 bd4b5013 bc867913 3c2c93fa 3c6648f1 bcf752e3 bc8a5f09 bd3d9985 bbc5daa3 3cea0896 3d59539f bd1d0968 bd563711 bd4bd45b bd353072 3d1ab5c7 bd12e224 bbef2410 3a9d571b bcb8aefb bcac69f3 bcb0b56d 3d278408 3cec77a0 bceedd93 bbe8240d bcbda2c9 3d17e514 bbba2473 bbe7ab54 3c386636 3d2020ea bd070791 bd6285c6 3c6d440a 3d35c451 bd24fa6a bca49278 bcee645e 3d7a7c66 3c3d47fc bcabcdd8 3c0d1a14 bc21097f 3d4af348 bcc93a76 3d12d872 ba93d09d bc56b5e3 3c173544 bd6f4afd 3d46fb31 3c443be7 bc4d8be9 3ce100f6 bc5018de 3d6fc394 3d5c01a3 bc78ed23 bc231990 3d6fe2f0 3d0aaa73 3d0264de bc0943ab bd27206c bcc45da2 3ce67561 bd371c57 bbac25bf bd3b392a bd152dc2 bd45dfd8 bd365523 3c42ae27 bcfe4b02 bd19c4e7 bd23f7ce 3cc91a05 bd0e677b bd1ea732 bd004af0 3cfb05cb 3d6efa54 bce6a586 bd07c6bb 3cd0c7ca bd0b6196 bd543fe6 3d42d482 3d11866a bbec245d 3ab37ca6 bd0686aa 3d70147a bc46c805 bb8d2123 bcd913f4 3c7c4365 bd2e5e0a bc405863 bd3d8cbf bd58a37e bd0a8075 bc37b46e 3c80bd37 bced4cd7 3cb713ac 3c8053e1 3cef723c 3cc5d965 3be4b4be bca226f4 bc2b828b 3cf6b757 3cb2f439 3d0361c4 3cfc93c3 3d1714ef bd57ebe4 bd1d262f bd5dff73 bd5d45ef 3cf2e5ea bd47859a 3d6201b2 bbbeeb6c 3c9aafcc bc1d9b96 3c1ea6c2 bd0110f6 bd3c33b6 bb80908f 3a9c1a8d 3c7bc0ce bb01856e bcc38044 3d50f64d 3c51b529 3c657339 3c79763c 3bc836dc bbd4c544 bc1e4413 3cef9959 3d0a15b3 3cce20e2 bcbed127 3d554661 bc8ba552 bc7413c4 bd6dc30d 3d0e7f9e bccf3731 bbdeec66 bcf69946 3c3a39dd 39d243c3 bd3de034 3d26c53c bc557209 3bffe9c2 3c86d75a bd50cbd5 3d0d4000 bd302bc6 bcd2363e 3d6c80ee 3ca38c47 3d0a5f9f bd67d5fc 3d5ddcee bced27b4 bca82e0e 3d2a053d 3d7619e3 bd22b3c9 bd6dd23d 3c62a381 bb9345cb 3ab664a5 bcf6055d 3bc686f1 bcdfcf4e 3ba6fef4 bcdc4b33 bd27e7f7 bce11c03 bd5949fd 3c845dce 3c1b0702 3d427c65 3b84beaf bbf89f79 bce40b7b 3cf6fe9d 3d0ecee9 3d3b8d56 bcfae84b bbfaa18b bd43b22e 3c532e44 bcb4af27 bd4a966b bd5cb93b 3c7bb922 bd5a77e7 3d50fc33 3c7b274d 3cadf9a2 3d38991c bd098bfa 3c893113 3d05989a bd2cde0e bc31aa4a 3d4c971b bc53065b bcf95e18 bd1c23b4 3d767dcb bc55ac6d bb42f1e9 bc9c1c38 3c59d96f bcd086e8 3c3b46b1 3d502f4e 3d91e539 3b320480 bccfd7d1 bd23d3eb bd2156b8 3d06ee1d bd5aee9a bca5876f bc059e30 3b836ec5 3d1ab60f bd181a36 3b900f76 3d595ff7 bc36c473 3c08c33b bc89978d 3da05a92 3da1f20c 3d9363a1 bd62777e bd3ca0e2 3bb1b3cf 3d250d0f bc030e61 3d8020ef 3d32610f 3d37bd9a bcec9dba 3c951735 3d598543 3b9f7364 3d28f485 bd2f7ea0 bd428c4f bcce67ce bd43421d bcaced79 bccacd5e 3d42b584 3c22d673 3b0e07e6 bc787ddf bd0c0df7 3d050c6f 3cf5ad24 bd4eeffd bc1991b1 bd0ecc5f bcd9e1dc bc202798 bd1dca97 bd3ebc63 3c203eb2 bad7a2db 3c8e2c7d 3d19320f bc9e40ea bcae9b40 bcdc7722 bd154bd7 3c43b0a9 bc2600a8 bcb0da20 bcde1747 bd3a323f bcb431ac bd22a79d 3b86e9ad 3d2047e4 bd54e673 bbfe8a10 3d6d787d 3d125bef 3c50fad6 3b534fe8 3d0cd325 bd49e9ff bd535676 3d4ceac9 3c754e91 3d1a21d3 3c9af3a3 bd2f038d bd5014a8 3d2b359e bd284b62 bc98eb96 3c1e5e0d 3b7b900d 3dad04f9 3c915d1e 3d018802 3b2cb978 bc114357 bd14e7ae bd0837b2 bd12c3bc bc25b1f9 bc5c998e 3d4d38e6 bceceb5e bd0f071c 3d3280ad 3cc5c9d8 3a866b13 3ba2fb7f 3db08e60 3db417a7 bc106cd9 3ccf0231 bc015b23 3d5c78e9 3d5bebcc bcd95086 3cf98bc9 bca89b73 bd082db3 3d55fd18 bc555714 3cfed3ba bc376080 bc9c02a7 bd6c08c2 3d611b10 bd05e6a2 bc9a9d14 3e0c1194 3d633e8d be0b08d4 3d00146c 3d39c9da 3bac1015 3d4cb159 3dba28c0 3dcd01c1 bd05cac3 3c2025e3 3d4e5430 bca5db44 bc46c2bc 3c476d88 bd101415 bd709186 3c9ff72e 3c302104 3d4cb471 bd1994fc 3be7454d 3ccfd686 3cceba18 bd625c8b 3c8eee2c 3d8c6b75 3def364f 3d43c6e6 bdd99a53 3d9907d1 3cb3399f 3d02ead1 bcc9c28d 391a8d6c 3d696391 bcf7a4f5 bd627098 3d882965 3da3f036 bbed5970 bcacc6f8 bbe29194 3d2e9ebf bd2e020d 3b486cfe 3d847914 3d5ee620 bcbd46a7 3c0d6aaa 3d0e38e0 bc6c1d38 3d34b5cb 3d6b556c 3d8a7f74 bba4131a bd5f4bf3 3b32e981 3d8a7dda bcc26953 3cfa3106 3d99deb5 bcc62c31 3bd0a21e 3c1f9807 bc73661d bd33f1cb 3bb1619e 39be4e7d bd315f0a 3c19af18 3d2dd1ed bd2feb23 3d34970b 3d65d715 bcc83fd3 bc8d413e bd503ccd bd839aec bd4b2d9f bd7d2490 3d674705 3d0c1b12 bd144888 bc4dd3bb bd2f60c1 3d4e59c7 3d1cca54 bcbec8e2 3bb76618 3c190622 bd35e1e3 bd27d91c 3ce4761f 3d1a398c 3c40ee52 bd3d28e1 3d8ca2f5 3d4d3b6c bc750fed bd2ee263 3d40c3ee 3c604ee2 bcf10aed bccaf3ae 3a61cd10 bd4bded7 3d5a4e65 3e063483 bd24db27 bddae2b2 3dd65a7f bce0877b 3c84b752 3d25af5b 3dd07a99 3dd7b1c9 3d38b79c bcfeb6ad bd8f356e 3dad5c97 3d00a353 bd5dff62 bd703081 3d1688a7 3d86b0f0 3d0ee6c1 3bbfc270 bc2ab1f0 3d9a60e1 3bbb3507 3c174e51 3d491bff 3d9ff93a ba9cbdd5 bd06a4c4 bd4652ec 3cbaca10 bd0cc9a2 bd1693be bcf8ab8c 3d6ca18a 3d7145fc bc68e8ba 3d24631f bd087570 3c810cd3 3d4f328a bbd9208e 3d456c12 3c7e5d36 bd373c0b bb318fc1 3d9fb8ba 3d8160d8 3d7fd230 3ccd2ebd 3d891d16 bcddabfd bdc0800e bd481457 bc62354e 3d31c92e bc07ea58 bd1cdcd2 bcb650d0 3d3965a6 3d6514da bd5c18c1 3d5d916d bc5f72a5 bc4fa22d 3d321dd6 bcc040a7 bc9a4f16 bc5c0669 3d661e6c bc8b1817 bd139930 3d5f9498 3d658012 3cabf715 3d669711 3d46b308 3cb508e2 3cb441fe bd02601a 3ce014ba bd4eeae6 3cf0bfdf 3c9d27f2 bce21295 bd3ba416 bd1ceecd bd201418 3cf03218 bcea656c bbb7d79d 3d460197 bc24c580 3cddd1e5 3ce51eaf bcca8369 3d3f56a1 bd04c5ed 3ba282ac b8ecf665 3b72dea8 bc812315 3c8a1a1c 3d45c761 3d2afabf 3cef03e9 3d058040 3d1026e2 3c3accde bcb9bbea 3d8001b6 3cde7988 bd740013 3d2ea85b bd5a01eb 3bf03407 3d1f6d4c 3d2e06fb 3bcba064 bc965846 3bf92143 bd51420d bd59d84f 3ce150a0 3b2a35bf 3d250dbf 3b7a55c8 bc6fd26d bd3bde11 3b489934 3d2ec614 3d032bd4 bd819ce3 3d3944b1 bd40764c bd3cefc4 bd1b2470 bc94fe1c 3d966626 3d224532 3d28d28e 3d5ec0e0 bcbdda3c bcf18296 3c85769d 3ced90b6 3b47c22f bbbf5426 bc30fca7 3c5acf04 bb9206ce 3d596e71 bbdca0ec bbc2b51c 3dc35cce bc1de1bf 3d961fa5 3ca83e96 3c8a7da2 3cc7f2a5 bda57c2f bcd18af6 bcfb26ee 3d49c553 3cb465ed bb0b8f47 bb99eee2 3c75bb05 3d6c4639 3c8026de bc4ea3fc 3be5df7d 3d16f3ff bbcd700e 3cb471ea 3d4affbf 3d4267bb bb838177 3d6ab78b bbb4fcfa 3d0e6430 3d9b0226 3dc325a0 3c08b2d1 3d6702bd bd18d39e 3caab85e bd829778 bd32cbe4 bd9551e0 3cfedd5b 3ccf0fcb bbb43cec 3d53b7e3 bd019de1 bc31cc67 3c6f53ea 3d26700e bcf6982a 3c723732 bd3e486a 3d28160b 3d20ce8a 3d6d0601 3cb80819 3cb2207f bd496e9f bd458eef 3d6fc6c0 3db323c2 bc0d88a7 3b8de8aa 3ce90ed9 3d8030fe bddf7834 bd9f0e30 3c8ea0c8 bd7832c1 bcc049f5 bcd57305 3d4f3d8a 3c83b90b bc5826fa bc226572 bce1c8a9 3c98fdd2 3ceaa654 3d9a7a7c bcc24d4b bd5f2293 bd4a9e2c 3d2f2e69 3cce9faf 3b157379 3d1c08d4 3d63b469 bd1b4e96 bb7eeafe ba79b4c4 bd18e9b8 bc32e9b9 3cf19d52 bd85467d 3bfc1749 bd015095 3c9ff8d1 bcc88e0f bd697c9d 3d3da7e8 bc9ec601 bc11d1ea bd649ad3 3cf8ac63 bd3d9847 bd135809 bd0a582c bb81d8ce bd45a521 bd209741 3cb6babc bd34e4c0 3bd85588 3d049457 3c1e8b53 3d97fa68 bc5b8a39 3d3a0382 bd2d53e7 3c82fc29 bd2a8f2c bd8733df bcc529ea bcca4595 bc8755c4 bbc80764 bcad11e8 bb2dc886 bd1d84b3 3d3837aa 3d45bd6a bc302394 3d552208 bd499b4e 3d868c8a bcceb104 bd3034dd bc946737 bc961c54 3d65dc57 3d0ab090 3d046968 3d5b7f57 3db09163 3d8f4487 3ce65752 bd640d80 bc27a445 3d1d0239 3d575f0c 3cd428f7 3cf7ed00 3c954eb8 3cdc54a5 bc77acea 3c17a09e bd8ae64c 3d13e6dd bac1b917 bbd262d3 3d85cca3 3d617be7 3da489cd 3c74d0c1 3bafc2d0 3be08d2d 3d101aac bd6383ff babc4b26 3d7477a2 3bf4d9ed 3d4f90f3 3c3b7697 bd38c138 bc492c0a bd0fdcdc bbdf0138 bc9828ea 3d03bbc5 bb88a9e3 3d28e809 3d56761c bd04d653 3aadc0bf bc74a0ab 3e0ca8c3 bc8a39f5 bd76494a 3cdd0850 3cf95e1e bc57fad7 bd661db9 3d1b1c04 3cf480ad bc6dc79e 3d4bc60e bce573b6 3c9a1d1d 3d5bd70f 3d24f216 3c555f50 bd0e09b4 3ccfe579 3d631b29 3d487f98 bd91b75b 3db77323 3de08201 3d257629 bd4cdfc1 3dd68016 3ddcca26 3d082ed7 3d82a784 3b96502a 3c3ea13e 3c1cea6b 3d6f4f65 3d07192a 3d7f7bd2 3db70813 bd263e7f bb772c65 bd23f362 3ce0abdc bce6c5d4 3d0513ba bd5a36f4 bcd8b983 3d0deacf bd3689b9 3d672e6b 3c712ed1 bd2d7c49 3c0e77cc bca5a918 3c6bacf4 3c19ec6b 3d558ecc 3d672dcc bd1e005d bc2e8cf1 3c7673a3 3d224aa7 3c96a1b5 bcd4a8e0 bd0da2a2 3cae86f8 bd26a576 3d5a0066 3d0408d4 bc88c99d bd181648 bc8e2ebc 3ac9fd80 3d3d47e8 bb95b294 bce0b545 3d554c03 bcc65dea bc21b3cd 3d610705 3d843d0c 3b9c9267 3d48ac64 bc5c765c 3c5d12a0 bd268be5 bd6a3866 3d1dfd80 3c2b47e0 3d1839f9 bd14e59f bbc5402c bd8985a4 3d9b25fb 3d393dae bb91d8f3 3dbc2653 3d249590 bd80104c 3d89fa04 3d44dc10 3ca01c28 bcf2b46a bd1d06e1 3c3d9857 bbf00930 bcb0f563 bc19038c bd100b0b bd4047ba bcce5b0e 3da0e2a1 3cca9e37 be18a189 3de3d1e7 3d7bdb1f 3d283b23 bc3816f0 3e1f7786 3e104d81 3d625213 bd5b59a2 3d63f61f bc8eb967 bd4e34f8 bd689494 3d6cc55f 3d702e18 bd0cef83 bcc99843 bcce4a1f 3c0b8e86 3d462a68 3d3b097f 3c48b4a2 3cd20375 ba3bff4c 3d143344 3e610875 3dff8412 bc05e011 3dfbbc09 3dd6956c 3e014678 bdc3a483 3de87978 3e71d4ce bd6ce79d bc4280c0 3d444d13 bd2f6fb7 3ca6e42d bc54a9c7 bd4ec8ef bcd0a32e bc3d27da 3b724396 3d5c0071 3d268254 3bc8b3e6 3cb77215 3d5c88f1 3cd8a2f4 bc5b17f8 baac6d61 3e540e50 3d8dedc9 bd312a94 3d07c985 3dac5a45 3c9850d9 be04e0ec 3de743c8 3e3428e6 3cf93d78 bdaeacaa bcf7a9f9 3b2cd589 bc1b866b 3ab112a5 3d91bd2f 3d6e81e6 bcf86985 3d2c2171 3d3dcd79 bb83b5ac bcc44d47 bd3fdc94 3dc349fb bd9a3f5f bd9820c4 bc822fb8 bbf7710e 3d596ce7 3c3104e2 3cb7f90c bc8c6498 3d8edd4c bc78efe8 bc852ec7 3b0f412f bd015be5 bcf92ed7 bcce33db 3d3bdd35 3d513ac8 bd4c154d bd0f9773 3c5def2b 3d577903 bd59a1ee 3d35f927 3d9a14e0 bdad8b8f bc93a634 bd21867f 3c896386 bd745c59 3c986a3b 3cda60e4 3cf5e3d5 3d528fc3 bd064bed bbc8d579 3d1cb2f7 bda0e1fb bc32b93b 3dd3c9eb bd0b84fa bc93fd68 bd6d3022 3cdb6fde 3d4cbc0a bc42c076 3cb48872 3d58b32e 3d220b38 3c7cb956 bc846001 bd55cf91 3c12aef3 3c86cd49 bc686338 3d237e2d bd41892c 3d456fcb 3e5c052c 3d73de85 bde213a5 3e217d5e 3e0c4fcd 3d04da72 3ca645d9 3e1d0503 3e1d9695 3d8d17ae 3dfd9819 bd8dcd26 bc805a98 3d93f0ae 3c2f0f82 bc995ab0 3debe7b8 3d86f71e 3e03b756 3c1c2783 bbda6d4f 3dedd451 3c395b60 bd8369e3 ba741b88 3df03cad 3d6a33d6 3d3a4a44 3d5ce1ff 3c946dfe 3d19c52c bcd8e973 bd69e29f 3be4be3d 3cbf465a bc924c20 3d178abd 3c475d34 3d1409d9 bc9908c1 3d3e8b30 3cd9f9ac 3c8a3346 bd0c49de 3cc142c2 bbf7221d 3d74091d bd07d46a 3d33d19c bc735b85 bd8adef3 3baef04d bd050584 3c006059 bd145a6e bcbc460d bd20eeca bd0b5a40 bbf91b88 bd0da6e1 bd4f9ab5 bc40c6ad bd49bb33 bcff2249 3d89a781 bce23f0b bc8b165f 3c3b3f1b bd906f9b 3d8db379 3d5bd14c bd4b06fd bc66a621 3ca6cc49 bd15c3da 3d848e93 3d560791 bd711654 3da5d247 3d75808f bce38895 3c929b7a 3d1425a6 3c8f7f99 3d0eefbd 3d3c3d83 3d06f64a bd176340 bd5b3b09 bce38fcd 3cdfb6db 3b754bb4 3cc79092 bd2dba7f 3cee8a61 3c7e2bc7 3c9c63d6 bcff3d7a bd19c7ca bc7181c0 3d391b31 3d5ca6b0 3c9b6bce bcf088f3 bb473eec bd52fc0e bc847c17 3c9c541b 3ca4599a bd7702b1 bc8c5b7f bc6aa2cd 3d372271 bcde6ec6 3cc68898 3d32a9b0 bcfdb1e4 bd0317d6 3d564c53 3d2f4039 3d658284 3d8e00ad bcd890ea bbb30c29 3d43c9bc 3d13e1a5 3cc0def4 bd777221 bca4b955 bd4597b6 3b7ee862 bca2c896 3d00aa69 bc8a96e8 bc7dbc07 bc952c3e bc915cfd bd895f0b 3d6aed14 3ca91e65 bd559a39 3b3e479f bd124830 bd36ce9c 3d3a60f5 3c8cc03b 3d06d038 3d152930 bd118659 3d37c8a2 bc51f916 3d21ba5d bd02963e 3da7c3cc 3d9c7471 bdccf50c 3d8c1b9d bd3e71d9 bdc9378f 3dcb728f bb96637d bc786c60 3d54b79f bd5922ac 3d452581 bd1d5b1a 3c0d0cca 3d24f644 3b5fb85a bd50c2f2 3d54651e bbbadd4f 3b8ae643 3c60e734 3d5635ab 3cf2cc2d 3caf56c7 3cae805d 3d6d3378 3bf5245b 3cabd061 3c8cb9fa bdb07720 ba662fbe 3d53f549 bdc44c37 3db2a6e0 3b83b0f4 bdb5c7a7 bbf7a7e9 bd10dc11 3ca383b7 3a9818ea bd4e25ce bd391aa2 bc8eece8 bd1d032a 3c9b954c bc936fe9 3aac91e6 3cca4898 bc4aa805 3d68b70d bbcc3b79 3d12cbdc 3b7540f2 bccd06d7 3dc38829 3c1631b8 bd298014 3da86f71 3d88a7cd bca887cd 3d846438 3db4af0c 3c41a8e6 3c2d364e bcbeb549 bd203f83 3b3165cf bd005418 bd4fbe97 bcb26e99 bd7935bd bbd1ecf6 bd7394e3 bd8e3123 bcc6bf98 bd8befd3 bb58efdb bd708533 bd81d4df bb338375 bcea91b4 3c22a09e 3d66af98 bd0ea2b3 3d38d8ae 3c7e1e6e bd67aad2 bc88e91b 3d9111b0 3c281d43 3ccba417 bb9e80a6 bd6ff74b bad664ec bd578a35 3d47f469 bd24bfda 3cb76cb2 3b574d08 3d153950 bce37cc9 bb6e9fc5 3d128a83 3d362c13 bb16c5bc 3a3eca1a 3d5d6f72 3d6ca27a 3d39c662 bd1cea68 bcf4cd90 bcb46dec bd642c76 bd85858a bcae326a 3d764b06 3cb6e7f9 bd706bad 3c2459ad 3bd45be4 3c4959c8 3d2de5a4 3aecb148 bca501d3 3ba74ff1 3cbd989e bd4962b1 3b13b39d 3ca70c90 bd4a6a8d 3d0c6f57 3bcf2b3b 3d35a04e bd6c862c 3c99e3d5 3cff02ab 3d2234b2 bdb3968f 3d96ac21 3d1fb8d5 be036727 3e0592a9 bd165960 bda99fad 3bc2fd59 3cf322b7 bd4b3951 3cd384ab 3d91c31a bd02af55 3dcf0fce bc0f235e bdbb73d6 3d53a9ba 3d58afd2 bd611ebd bd0e469d 3c6e7882 bda9bb07 bcafe586 bb964fd0 bdb8540d bd6379cb bd574384 bd4a5e4f 3ca24263 3d6673ad bd45dd68 bd5e0ee3 3c0b4f45 bcec0707 bcbbb8e9 3cef145b 3c040ba8 3c761508 3cc4d8fd 3ccf65de 3c941fbb 3bf20b1b 3cb56c53 bd401519 bccfdebb 3ce4064e 3cfe3e42 bd24ed13 bafe98f7 3d622c0d bd32ed9b bb7f3d67 bd18f62b 3d289a24 3cb6dde4 3cb63a4c bd58d9ea 3a7bf63e bd33ae46 bd2a7510 3d246ebf 3ae3f687 3cbddccd 3d72200c bd2afe97 3c420c4a bce51f97 bceee47a bd359037 3c0473ca 3c78fc42 3bb7820f 3bb8b344 bd010218 3d0c0a2a bb61ac41 bd289448 3cfeaf8b bd03e7ae 3d07ac61 3cbf7a65 3d5e54a9 3cb0d903 3d5d542e bb82555d bd479609 bd287fbb bcf8046e bcb31cd5 3a635ec5 bccc083b bd13bd79 bd3db3b6 3d655006 3d4c06d3 bc34600b 3d5cf6fd bd60bab3 bcedee0a bd3de3f4 3cdfbd9f bd303cbc 3b847a8b 3c84922b 3d24ddb9 bd5cf892 bd1db6c6 3d665942 bd4db9b6 bd37682a 3d53748e 3cd2102d 3cb59533 3c0ac216 bd0c2b31 3c40b905 bd49b6b7 3cab37a4 bd342ec1 3cc6e6c5 3b804fb7 3cfe1f02 3bdc1957 3d2ee0e0 3d4af571 babfb841 3c9f2200 bb3c9c9b 3d6d23bb bc95a5f2 3cd8f100 3d4f0a38 bc25058a 3b2904f9 3d6234fc bd430144 bce57b58 bd4914e1 bd064cb1 3d042393 3d0429e9 bc8c4341 bd4c44ac bc74c96d bd296225 3d237ba9 bba1094a 3d196741 bd6a82bf 3cf4a179 bd01b8f6 3d523301 bbdbf2f3 bc6785f8 3d2e89c2 3cf43036 3c8b73fe 3d03decc bd595ce6 bd4f5974 bd317f98 bc43067c 3cb36420 3d1f0916 bbe695fb 3b9b7aec 3cf2de4f 3d649fe8 3cb5472f 3c603703 bd49cacf bc7f9e09 3d65a51a 3cad9e89 bd68c701 3d24a3cb bd1824f0 3d4926b4 b8f57ef4 3cef223e bc836d56 bc0cea85 3ce279b0 3cfd984d bd44cc2c 3d2fd63e bd5f1727 3cb439d1 bd679df1 3c291695 3cfd10ee bd02805d 3d15ffe2 bca05e50 3d3b0e93 3d6bf2e9 bd1a8157 3d4649eb 3cf3672f bd3ca543 bc3b2978 3d2981d8 bd45b810 bc8d5d23 3c6e403c 3cf40b34 3d022721 bc888b4e bd4504a3 bd044ea8 bd0780d0 bba50ed4 bce9ba47 bca021c7 bcf73e9a bc607233 3bb64920 3cbbe917 3b8c59b1 bc83cb4a bd4f4e56 bd3f6ba7 bc7c4bd6 bd375645 3d2b2416 bc8dcb23 3cce47f5 bd2bbc1d bccc6fe2 3c80c812 bca635e4 3c539606 bc18588f bd47b9c6 3d470333 3d5b250a bd46cecb bd6af62b bd255890 3c0f3304 bd011187 bc8309e8 bbeb6b4d bcff42f6 bd41d0f9 bd1c313c 3d450f64 3c6c15ed 3c6988fc 3d45c9c8 3d74f776 bd01084c 3ca08ebe bd04a37c bd1f6ca4 bcd6c6fa bd2e3b29 bc8acf12 3d64b7e6 bcea7313 3aceb26c bd171930 bd331c92 3a7d3bb4 3d607340 3d2e0ae9 3d336ee6 bc8cf3ce 3d159751 3d5e7594 3d603161 3bcfa5dd bd33338f bd04ee5a 3b3bda32 bd268b04 bbed7a98 3d1475b5 3c84b8a6 3cf06fa8 3d555c2f 3d6e5bfc bc908e7d 3c20ca06 3d189755 3c8033f1 3d5168df bcb2a727 bd078de1 bd432bdd bcc0e2ad 3d3a99ce bc8a66a0 3c9d15ff bca90661 3d573c4f 3b630480 bcac5599 3d0993b1 bd559ae7 bd2854e4 bd099b20 bd057643 bc96604c 3d6d332c 3d1063d4 3bc369ff 3c61bfce 3cb6c614 bcaf7534 bd3088a8 3d19c4a9 bd0fc181 bd1ce335 bc97d2c1 3c4ba8e6 3b979609 3d6d8c0c bd0cafaa 3c73fffa 3c9feb30 bc1c15e1 bd209b02 bc4d34ec 3c9f0f0c 3d85b41a 3d45e40c 3c172d75 bd131de6 3d747d96 3d60399e 3d905041 3ce57d2b bb3e5486 bb8e601c 3cecb631 ba1e5de8 3d26a0a7 3d1a989e 3d148674 3d537ded bd47254c bd4abd11 bd4e4001 3c578ad1 3d305fb1 bd285515 3c692132 bc1752e9 bcfa2671 bd3cafba bc9d71e9 3d669f81 bcdbf1d7 3b9c83df 3c8d7e37 bccf85ff bcb103b9 bcfd19c1 bb11ebea 3d1c09d1 b9b9c2df bb41f861 3d49aca8 3cc2c1b1 3c20b366 3d278ab2 3d708705 bc4c0e13 3ce7c2ae bd350913 bd25220e bd25de14 bc9c6868 3c674056 3bcfe9a3 3c4ead77 3d54a7cc 3cd6f5ca bd5c6707 3bdd758e bd42d247 3d46cb2e 3d2fa603 bd00b020 bd6146ba 3c3507b7 3cdcc0e3 3d2c6ef5 bbda260a 3d352a0f bd590b72 3d57a99f 3d00bc7a 3cda07df bb445e2d bd4eb538 bd12b830 3c4932b3 3d799957 ba81430c 3d218d91 3c2ac21b 3c01d610 3bc87720 bd3e5689 bb229bbb 3cc5e73b 3cfbc6b2 3d0810ed 3d42aad9 bd117d55 bd246887 bd5df93e 3d392351 bd2a2474 bd266629 bd513251 3ce64cc8 3d4d64e7 bd60a041 bd4a62de 3d705bb0 3d204142 3cf9034b 3d4030eb bcda943c 3d902ac7 bd40e266 3c92609b 3c805df4 bc351185 3c3a0dc4 bd1802d1 bca85d08 3c998442 bd2fc3de 3ca484af bd605e07 3b8a2ff2 bd390f62 bc92927b 3d0a58bd 3d4cde51 3cb3a5fc 3d0b8fcd 3d60e4c5 3d85fd8a 3c98456d bd3088ef 3d47bd29 bd6db481 bd2fd300 3c408e7a 39096fbf 3b27bad3 bd57422c 3c0a0969 bd2e9e4d 3d13d46c 3cd78c8d 3d33eef7 bc10d401 bd113dab 3d52dcc4 3d219258 3dde2265 bc204438 bbb20523 3cc04e03 3daee7a1 3ae0c3ba 3db62492 3e0b6227 3e037d18 3cdce9d8 bcb8cc51 3c205a92 3d336ba0 bc5c8b6e bc80c742 3cd9a640 bcf67550 bc219915 3cbe0b7d 3d217188 bc139f7a 3d39be0a 3cec16c6 bb95409f bd3bf893 3ce9e6dd 3c9f2e60 3d20f239 3c28d931 ba57305b 3daef799 bced13c4 bcfd8943 3cccde75 3b93bf9d 3ddf307c bd4c6290 bc196380 bd00fef3 3c897f19 bd2729c2 3d0c5119 3c1a6c33 3b8109fe bb87efd2 3c7a0f26 bd25e525 3cbe9a37 3c1c0fc9 bd22b7c2 bd17f01a bc9e3b81 ba875d15 3d7c400b bb299ad0 bc8f7ced 3d25f47a 3cc2643f 3a88b7b5 bd004f6a 3c95723e 3d01be1c bc8eb95c 3c5c6f77 3cf048e0 bcd9724b bd47c0c7 bd5f4373 bd03ae0a 3bddcbe8 3c3925ad 39850e35 bc147373 3c8a9a2d bcf8b5b3 3d28955f 3c358c76 3d4007f1 bd7dfd39 3d0dd4d9 3b2a16c0 3cd85aea 3c9a71bf bc91fcee 3cba411b 3d78e8f6 bd3c94d7 3d4bb239 bc95dee1 39dba20a 3cd8280e bd652926 3c19342f b9ed87f8 3c48109a bbe80826 bd3b6285 3c470b64 bd2e8f92 bc3e731b bd6a2770 bc57de70 3d54f04a 3c81c9e6 bcd16198 bd3a55ef 3c17695f bd47ae1c 3d1bab48 badeb1ed bcef4428 3dd12b71 3c3b7cb4 bd72fe01 3dcabc1c 3d20590b 3bf067e9 3d96a02e 3ae2c28e bd34323c 3d5712d4 3d503db4 bd8a10d4 3c839ac5 3dba94a9 bbb06260 bc266f21 bc7dff52 bd2e1af9 3dae9f8e bbc4da03 bc54353c 3d320245 bca259d9 3d30f498 3bd199f8 3c5bb746 3b372144 3d572d0f 3c394467 bc9218ce 3d006856 bcc7f64a bd3d1939 bc179b62 3be80a05 3d55e2f4 3ca04f2b bc4c0598 bd148326 bd575a06 3ca852f5 bcaa9e94 bc469187 3c2161b2 bcdb43d4 bbe51345 bdb0d997 bcae216a bc146dd1 bc283ccd 3c84c91b bd624027 3d2e823b 3d328f33 bb22a243 bd237db7 bc2ee43b bca2535d 3cfc6810 3b43773f 3d183880 bc7baee3 3cec05c1 3c578b12 bcd5ebb5 bbc50b5d 3d8e2df6 bca18c0e 3d0769d4 bd02754a 3c9f1e26 3d6e9850 3c4e940a bd876e35 bd01fb9c 3d64eda4 3cd19c4e 3cf8d472 bd3e9094 bc1ff7db 3d13cee4 bb18aabc 3b2a2cd9 3cb95bfe 3c8a5af3 bd353b1a 3b808afb 3d06b02a bc2f01e2 3d1fd9a6 bc4800f0 3d1c4bd4 bc36ad76 bd6a5c99 3c634396 3d3eb406 3b92c0e6 3d319283 3cc41932 3cc003ac bc655e27 3d0f7b69 bd21270b bd5f55b4 bd19db40 bc5f9a4d 3d3d693f bd36d99a 3cc72b6a 3a24bef5 bd2a8d57 3c71581b ba0e24f0 bcd89cb5 bc7f19ba 3ca6c6da bd012c9c 3d11f129 bc6123df 3c0c18c1 3ca865c9 3aab6071 bbd15424 3c1ba9a5 3b92c431 3d5163b6 bc2f7939 3c3df641 bcd1c533 bd5235fd bd758e60 3cd393ed 3a26ebe6 3d6e3236 3c9140c0 bd7a1124 bd5e9566 3ce806d8 bc2b13a4 bcc06295 3d2aae22 bd515a1a bbb46823 bcb3d5e0 3bbf5f00 bd4e1606 bcd4cf0b bd3822ec 3d0817ab bd4a25af 3c923ac0 3c8c1230 3cbd91c5 bc26398f bd90db38 bda384a0 3d07e35a 3d0d4bbf 3d6d4a65 bba0f83d 3c202222 bbf20b79 bccaddea 3d6a0154 bd2b92ef 3d5eeca9 3ca88f93 bbb041e6 bb3c1f78 bd4bb959 bcb7c092 bc983f6d 3c2aa7c3 3c1c6427 3d1bf5be 3d3bc0b3 bb81b049 3b121796 bda04f4c bc5a7666 bb834bf3 3cefa417 bd952b9e 3ce974da 3db9dbbe 3d893c55 bd4df005 3d634cd3 3d559f34 3d2fcf86 bd0f9641 3d4a905a 3c89c3c6 3ae6db8e 3c98c6b1 3caf229e 39e81165 bcf219e3 3d07d10f bc9b4760 3d1da127 3d6961eb b86c4be1 bc52b4b0 3a8a17b8 3d0cd86b bcceb71b bc058298 bc184cb5 bdc69912 3d9b13e9 3d9830e4 3dae6466 bd0f87ec 3d372c90 3d3b367b 3d357f66 3cafb6ef 3d8afd1e 3c12cec6 bd7ac629 baa06779 3cd221bd bd5a424f 3cd50b26 3d931f7f 3d8af5af 3d4c0358 3cee0f4c 3d423aa8 3d8381ad 3d2500db 3d07fbbe bcc3287f bd33f018 bb8f653d 3cffe2bb 3d902ba9 3d15128b 3d29b90a 3ccb16a6 bca450af 3d6a9da0 bc9d0712 3d5a3cf5 3c42a0c0 3d59b77e bc82ecf8 3cca6b66 bc80a56b 39f04465 3c20b999 3d609447 bd056062 bd04d180 3c0519db 3d2d47e1 3d439b8a bd571d92 bd544e62 bd88deb0 bcddfb55 3d68ebfe bce012a2 3cc28553 3d5d6ad2 3cf5b844 bbfee1e8 3d613699 3cd0b4e7 3d1183e4 bd678af2 bc9d4dc5 bc92e3cc 3d302c74 3d59a02b 3d6f546b 3d8e582f bbcff361 bd2dc1dc 3cabc672 3b4d0c20 bc620f99 bd1a7597 3ce03de1 3d57c7f8 3c290733 3d32ccb7 3cd14b9a bdb50f21 bb7ff0db 3db310ae 3c8439f4 bd4faf91 bc96cbb4 3d0b5ab6 3d0724f4 3d332b49 bd8a111b bd75b8e3 bcbf5995 3d918f6c bca2d3d2 3c9a3339 bc58b65c 3d60310c bd849fbc bdabfc32 bd852a25 3d584b01 3cb13c44 bc279c57 bca3ca55 bd4ff137 bd5db5f9 bd4706a0 3b9a7418 3b4b5b0f 3d2872af 3d3c09da 3d15a449 3cb20a87 3c5b6b98 bc16fc7c bc3884d0 bc35a089 3d2b3379 3c8fe781 3d446028 bc3b83fa 3d701052 3d218b51 bcf0daf6 3d0cb23a 3d38dad0 bcbf07ef 3d726886 3c316bba bd7c71c8 3b06f04d 3cf3d37e 3cca184f 3c909031 bd275a26 bcb7f86d 3cccf773 3cc1d75f bd5965a6 bcef699b 3d2b5995 3ccfc343 3d150785 bce987c2 bc8d538b bd0fe9e2 bd178cea bd8fd75e 3d6740b3 3d2e6798 3c21c953 3d9b2470 bd3f3910 bcdc679a 3c196dc8 bcb63a8c 3d49cdd2 3c02464f 3d2b243a bcff005d 3cb3fcaf 3cc75455 bca0c627 3d2cf09e bc6b9284 bd243af3 bd2e387d bd0be480 bcd4f393 3d89edf5 3d1d0158 bd030465 3d7cc7bd bd20ed25 3c364292 3cebf423 3d590d55 3d6b21ac 3d676cb2 3c828546 bc187188 bd3edda0 bc75003e 3cab42f6 bbef1793 3b1d8ab6 3cd3c9f4 3d1ec6dc bc8e57d6 3d55afb2 bd005f3c bc560e3b 3d5e2f36 3d3d0b80 3c82fd71 bcae43cd 3d304dc0 3d2b1ae3 bd67827c 3d855755 bbfb879e bcfdf960 bc5d0a9a bcb32dec bc104cd3 3cc6dd73 3cde0f6c 3c996015 bc01ea26 bd59a02e bba21691 3d59f3c6 3cf9f460 bd3c189a bd15a790 bc12e776 bd705e0f bd362b7f 3cff7bd0 3cc5984b bc9ec743 3d7ad940 3d1942f1 3d1d2dfd bd5c6fa2 3cc88ebc 3c3ec52a bb0294d8 bd19b0f0 3dcf1d3f bd6247ef 3b175f60 3d8266c6 bcd90a1c bdb1dc31 3d15cb60 3ce1403c bd950c19 3d079725 3cac18f7 bc94c8ad 